{"<|endoftext|>":0,"!":1,"\"":2,"#":3,"$":4,"%":5,"&":6,"'":7,"(":8,")":9,"*":10,"+":11,",":12,"-":13,".":14,"/":15,"0":16,"1":17,"2":18,"3":19,"4":20,"5":21,"6":22,"7":23,"8":24,"9":25,":":26,";":27,"<":28,"=":29,">":30,"?":31,"@":32,"A":33,"B":34,"C":35,"D":36,"E":37,"F":38,"G":39,"H":40,"I":41,"J":42,"K":43,"L":44,"M":45,"N":46,"O":47,"P":48,"Q":49,"R":50,"S":51,"T":52,"U":53,"V":54,"W":55,"X":56,"Y":57,"Z":58,"[":59,"\\":60,"]":61,"^":62,"_":63,"`":64,"a":65,"b":66,"c":67,"d":68,"e":69,"f":70,"g":71,"h":72,"i":73,"j":74,"k":75,"l":76,"m":77,"n":78,"o":79,"p":80,"q":81,"r":82,"s":83,"t":84,"u":85,"v":86,"w":87,"x":88,"y":89,"z":90,"{":91,"|":92,"}":93,"~":94,"¡":95,"¢":96,"£":97,"¤":98,"¥":99,"¦":100,"§":101,"¨":102,"©":103,"ª":104,"«":105,"¬":106,"®":107,"¯":108,"°":109,"±":110,"²":111,"³":112,"´":113,"µ":114,"¶":115,"·":116,"¸":117,"¹":118,"º":119,"»":120,"¼":121,"½":122,"¾":123,"¿":124,"À":125,"Á":126,"Â":127,"Ã":128,"Ä":129,"Å":130,"Æ":131,"Ç":132,"È":133,"É":134,"Ê":135,"Ë":136,"Ì":137,"Í":138,"Î":139,"Ï":140,"Ð":141,"Ñ":142,"Ò":143,"Ó":144,"Ô":145,"Õ":146,"Ö":147,"×":148,"Ø":149,"Ù":150,"Ú":151,"Û":152,"Ü":153,"Ý":154,"Þ":155,"ß":156,"à":157,"á":158,"â":159,"ã":160,"ä":161,"å":162,"æ":163,"ç":164,"è":165,"é":166,"ê":167,"ë":168,"ì":169,"í":170,"î":171,"ï":172,"ð":173,"ñ":174,"ò":175,"ó":176,"ô":177,"õ":178,"ö":179,"÷":180,"ø":181,"ù":182,"ú":183,"û":184,"ü":185,"ý":186,"þ":187,"ÿ":188,"Ā":189,"ā":190,"Ă":191,"ă":192,"Ą":193,"ą":194,"Ć":195,"ć":196,"Ĉ":197,"ĉ":198,"Ċ":199,"ċ":200,"Č":201,"č":202,"Ď":203,"ď":204,"Đ":205,"đ":206,"Ē":207,"ē":208,"Ĕ":209,"ĕ":210,"Ė":211,"ė":212,"Ę":213,"ę":214,"Ě":215,"ě":216,"Ĝ":217,"ĝ":218,"Ğ":219,"ğ":220,"Ġ":221,"ġ":222,"Ģ":223,"ģ":224,"Ĥ":225,"ĥ":226,"Ħ":227,"ħ":228,"Ĩ":229,"ĩ":230,"Ī":231,"ī":232,"Ĭ":233,"ĭ":234,"Į":235,"į":236,"İ":237,"ı":238,"Ĳ":239,"ĳ":240,"Ĵ":241,"ĵ":242,"Ķ":243,"ķ":244,"ĸ":245,"Ĺ":246,"ĺ":247,"Ļ":248,"ļ":249,"Ľ":250,"ľ":251,"Ŀ":252,"ŀ":253,"Ł":254,"ł":255,"Ń":256,"Ġt":257,"he":258,"Ġa":259,"in":260,"Ġs":261,"Ġw":262,"ed":263,"ou":264,"Ġthe":265,"re":266,"Ġh":267,"on":268,"Ġb":269,"er":270,"ing":271,"nd":272,"Ġto":273,"Ġf":274,"at":275,"is":276,"Ġhe":277,"Ġc":278,"it":279,"ar":280,"ll":281,"Ġm":282,"Ġo":283,"as":284,"Ġd":285,"or":286,"en":287,"Ġth":288,"Ġl":289,"Ġand":290,"es":291,"Ġp":292,".\"":293,"an":294,"Ġg":295,"ĠH":296,"Ġof":297,"Ġin":298,"us":299,"Ġha":300,"Ġn":301,"Ġy":302,"id":303,"om":304,"ly":305,"ow":306,"Ġbe":307,"ot":308,"ĠI":309,"Ġwas":310,"le":311,"Ġyou":312,"Ġe":313,"ac":314,"ld":315,"Ġ\"":316,"Ġher":317,"im":318,"et":319,"Ġhis":320,"gh":321,"ir":322,"Ġon":323,"Ġst":324,"ve":325,"oo":326,"ry":327,"Ġit":328,"ic":329,"ĠS":330,"Ġthat":331,"ion":332,"ut":333,"ay":334,"Ġas":335,"'t":336,"'s":337,"Ġre":338,"ver":339,"out":340,"ad":341,"Ġshe":342,"ould":343,"ent":344,"all":345,"Ġwh":346,"al":347,"ro":348,"Ġat":349,"Ġwe":350,"Ġu":351,"Ġhad":352,"ght":353,"ith":354,"Ġfor":355,"ĠT":356,"ur":357,"am":358,"ter":359,"Ġwith":360,"ke":361,"se":362,"st":363,"arry":364,"ri":365,"her":366,"Ġan":367,"Ġhim":368,"ked":369,",\"":370,"?\"":371,"Ġsa":372,"ĠD":373,"Ġk":374,"ĠM":375,"ore":376,"Ġsh":377,"ĠHarry":378,"ch":379,"em":380,"pp":381,"Ġnot":382,"ĠA":383,"ill":384,"Ġse":385,"Ġli":386,"ĠP":387,"Ġbut":388,"Ġsaid":389,"Ġme":390,"ĠHe":391,"Ġdo":392,"ra":393,"ted":394,"Ġkn":395,"Ġup":396,"ack":397,"Ġout":398,"Ġfr":399,"ĠR":400,"Ġloo":401,"Ġis":402,"Ġne":403,"Ġj":404,"ust":405,"rou":406,"pe":407,"ce":408,"king":409,"if":410,"ĠThe":411,"Ġab":412,"hing":413,"Ġhave":414,"ome":415,"Ġdid":416,".\"\"":417,"Ġso":418,"ag":419,"ard":420,"il":421,"Ġfe":422,"Ġthey":423,"erm":424,"ess":425,"ĠC":426,"um":427,"ain":428,"ĠW":429,"Ġwould":430,"ione":431,"one":432,"ermione":433,"Ġwere":434,"ind":435,"ally":436,"Ġcould":437,"Ġgo":438,"Ġall":439,"Ġfrom":440,"..":441,"Ġal":442,"ĠShe":443,"Ġch":444,"un":445,"qu":446,"Ġthem":447,"ant":448,"hen":449,"Ġthis":450,"hed":451,"rac":452,"ĠB":453,"Ġint":454,"ight":455,"ĠL":456,"!\"":457,"Ġabout":458,"own":459,"Ġr":460,"and":461,"ct":462,"ood":463,"Ġback":464,"Ġwhat":465,"Ġmy":466,"Ġex":467,"Ġsu":468,"ĠG":469,"Ġle":470,"âĢ":471,"Ġno":472,"art":473,"Ġknow":474,"Ġjust":475,"very":476,"You":477,"ast":478,"Ġlike":479,"ĠHermione":480,"ius":481,"ell":482,"hat":483,"Ġcl":484,"Ġcon":485,"el":486,"ab":487,"ven":488,"led":489,"lf":490,"Ġany":491,"ul":492,"Ġone":493,"oy":494,"Ġwor":495,"Ġyour":496,"ig":497,"Ġinto":498,"The":499,"ear":500,"Ġsm":501,"our":502,"ther":503,"Ġif":504,"ide":505,"Ġget":506,"raco":507,"Ġqu":508,"Ġbeen":509,"est":510,"ous":511,"Ġey":512,"Ġdidn":513,"Ġag":514,"ĠN":515,"ie":516,"Ġtim":517,"ake":518,"Ġare":519,"Ġtoo":520,"way":521,"fore":522,"ong":523,"Ġwhen":524,"Ġthou":525,"Ġro":526,"are":527,"ame":528,"ss":529,"Ġde":530,"Ġover":531,"ff":532,"ud":533,"Ġcan":534,"nt":535,"Ġhand":536,"ap":537,"Ġtheir":538,"Ġdown":539,"op":540,"round":541,"ate":542,"irius":543,"ers":544,"ge":545,"Ġwho":546,"Ġsome":547,"Ġbefore":548,"Ġv":549,"ort":550,"ĠJ":551,"emus":552,"ep":553,"ink":554,"ice":555,"urn":556,"ace":557,"Ġus":558,"Ġcom":559,"ĠF":560,"ist":561,"ck":562,"Ġor":563,"Ġtime":564,"ily":565,"Ġlooked":566,"ĠIt":567,"ation":568,"Ġpl":569,"ass":570,"ug":571,"Ġthere":572,"Ġbl":573,"Ġoff":574,"ak":575,"Ġasked":576,"Ġpo":577,"end":578,"ting":579,"ĠDraco":580,"Ġhead":581,"Ġeyes":582,"Ġby":583,"dd":584,"'m":585,"?\"\"":586,"ered":587,"Ġthen":588,"self":589,"ĠSirius":590,"Ġtw":591,"right":592,"Ġsee":593,"ick":594,"Ġhow":595,"Ġwill":596,"ull":597,"other":598,"Ġmore":599,"'d":600,"Ġdon":601,"ile":602,"ames":603,"alla":604,"na":605,"ks":606,"fter":607,"Ġother":608,"ĠRemus":609,"ite":610,"Ġagain":611,"'re":612,"Ġfl":613,"Ġsp":614,"umb":615,"ost":616,"ond":617,"reat":618,"Ġaround":619,"He":620,"Ġgoing":621,"ive":622,"Ġeven":623,"ol":624,"Ġsc":625,"Ġpro":626,"Ġthink":627,"ure":628,"omet":629,"iz":630,"inn":631,"Ġar":632,"Ġman":633,"pped":634,"aus":635,"og":636,"Ġthan":637,"ving":638,"Ġwant":639,"pl":640,"Ġevery":641,"'ll":642,"os":643,"ĠCalla":644,"Ġway":645,"Ġsay":646,"Ġgr":647,"Ġgl":648,"Ġnow":649,"Ġonly":650,"ave":651,"fe":652,"thing":653,"ound":654,"Ġthought":655,"ang":656,"ine":657,"ved":658,"Ġturn":659,"Ġun":660,"...":661,"Ġsomet":662,"ade":663,"Ġshould":664,"th":665,"ose":666,"ĠO":667,"iss":668,"Ġpre":669,"âĢ¦":670,"riend":671,"able":672,"old":673,"Ġlet":674,"Ġstill":675,"Ġyear":676,"ĠRon":677,"Ġen":678,"Ġsl":679,"Ġfir":680,"here":681,"It":682,"ĠE":683,"tle":684,"ward":685,"Ġroom":686,"ne":687,"Harry":688,"Ġgot":689,"Ġafter":690,"ĠJames":691,"Ġthing":692,"Ġsomething":693,"ather":694,"pt":695,"âĢĶ":696,"Ġmu":697,"ĠPot":698,"Ġstar":699,"Ġspe":700,"fess":701,"ious":702,"Ġneed":703,"rough":704,"aking":705,"umbled":706,"Ġfriend":707,"Ġmuch":708,"air":709,"ich":710,"ook":711,"Ġright":712,"Ġtwo":713,"ever":714,"Ġfirst":715,"Ġface":716,"au":717,"Ġlook":718,"Ġtr":719,"fessor":720,"Ġhapp":721,"Ġbec":722,"Ġkne":723,"ause":724,"Ġlit":725,"ugg":726,"Ġte":727,"ĠWe":728,"Ġreally":729,"Ġaway":730,"dy":731,"ried":732,"ened":733,"Ġthrough":734,"nape":735,"ft":736,"ble":737,"Ġdis":738,"ated":739,"Ġmade":740,"Ġam":741,"Ġwasn":742,"nder":743,"ĠAnd":744,"ĠPotter":745,"Ġim":746,"Ġbet":747,"ire":748,"lt":749,"Ġhere":750,"Ġbr":751,"orm":752,"Ġvery":753,"Ġfeel":754,"Ġdoor":755,"dded":756,"Ġpr":757,"What":758,"Ġboy":759,"Ġknew":760,"Ġtry":761,"She":762,"ley":763,"ions":764,"Ġlittle":765,"ĠYou":766,"ree":767,"ach":768,"ue":769,"orn":770,"ents":771,"ove":772,"Ġseem":773,"oc":774,"Ġ-":775,"Ġsure":776,"Ġke":777,"'ve":778,"Ġwand":779,"lp":780,"Ġfelt":781,"Ġgood":782,"ady":783,"Ġtell":784,"Ġche":785,"ise":786,"Ġtold":787,"Ġwhich":788,"up":789,"Ġow":790,"uc":791,"Ġop":792,"rofessor":793,"oll":794,"xt":795,"ĠSnape":796,"umbledore":797,"Ġhelp":798,"ark":799,"Ġday":800,"be":801,"ough":802,"Ġwr":803,"Ġlooking":804,"oth":805,"ip":806,"ies":807,"Ġtal":808,"ched":809,"Ġwell":810,"ĠThey":811,"Ġunder":812,"Ġlong":813,"Ġpe":814,"Ġtook":815,"Ġturned":816,"agic":817,"Ġmake":818,"Ġnever":819,"Ġac":820,"Ġrem":821,"uff":822,"anted":823,"ance":824,"ool":825,"Ġcont":826,"row":827,"act":828,"ĠBut":829,"ied":830,"Ġapp":831,"Ġwat":832,"Ġfew":833,"bb":834,"Ġwent":835,"Ġwal":836,"Ġwa":837,"Ġhas":838,"oice":839,"Ġsw":840,"ase":841,"Ġbecause":842,"ress":843,"Ġnodded":844,"ves":845,"ling":846,"alf":847,"red":848,"Ġbeing":849,"Ġthough":850,"ment":851,"Ġarm":852,"Ġanything":853,"ĠDumbledore":854,"Ġstud":855,"cl":856,"Ġfin":857,"ouse":858,"Ġcouldn":859,"Ġbit":860,"arts":861,"Ġwhere":862,"ĠMr":863,"ĠProfessor":864,"irl":865,"Ġwanted":866,"ild":867,"ans":868,"Ġhimself":869,"alfoy":870,"ia":871,"Ġpoin":872,"Ġwhile":873,"ful":874,"Ġmom":875,"Ġtake":876,"ĠHog":877,"ory":878,"Ġgu":879,"Ġnext":880,"ised":881,"Ġlast":882,"ĠV":883,"We":884,"Ġvoice":885,"ple":886,"And":887,"Ġcome":888,"Ġatt":889,"per":890,"so":891,"Ġcur":892,"idd":893,"ared":894,"arm":895,"Ġfriends":896,"lie":897,"rid":898,"itch":899,"Ġgirl":900,"age":901,"Ġput":902,"Hermione":903,"ĠMalfoy":904,"Ġfam":905,"Ġboth":906,"Th":907,"Ġbeg":908,"iled":909,"ĠTh":910,"ath":911,"ĠPet":912,"Ġsec":913,"ish":914,"Ġfind":915,"Ġleft":916,"warts":917,"Ġsur":918,"uck":919,"Ġown":920,"owed":921,"ince":922,"ev":923,"Ġmagic":924,"Ġpull":925,"Ġsn":926,"Ġclass":927,"ople":928,"wards":929,"aw":930,"Ġhair":931,"ts":932,"ity":933,"Ġres":934,"ually":935,"Ġbed":936,"ĠHogwarts":937,"No":938,"ĠLily":939,"Ġcame":940,"ence":941,"side":942,"Ġsit":943,"ank":944,"Ġra":945,"Ġact":946,"anc":947,"ber":948,"Ġgave":949,"Ġad":950,"Ġcall":951,"room":952,"ary":953,"Ġdoes":954,"Ġbeh":955,"Ġthings":956,"Ġreal":957,"Ġquick":958,"arent":959,"That":960,"Ġtrying":961,"Ġbo":962,"Ġsaw":963,"Ġwhy":964,"Ġ'":965,"inny":966,"Ġour":967,"ign":968,"Ġpeople":969,"Ġdes":970,"But":971,"rew":972,"Ġel":973,"Ġhands":974,"iet":975,"ect":976,"Ġend":977,"ont":978,"Ġmoment":979,"ah":980,"Ġnight":981,"ways":982,"ĠCh":983,"Ġpart":984,"Ġstarted":985,"Ġcou":986,"ille":987,"Ġhouse":988,"Ġmo":989,"pr":990,"!\"\"":991,"Ġseemed":992,"Ġword":993,"Ġkeep":994,"Ġenough":995,"Ġent":996,"hy":997,"Ġfound":998,"Ġtable":999,"Ġunt":1000,"chool":1001,"ully":1002,"ons":1003,"Ġanother":1004,"Ġmost":1005,"Ġcle":1006,"ty":1007,"get":1008,"Ġdec":1009,"eville":1010,"ĠY":1011,"Ġsat":1012,"een":1013,"ready":1014,"ins":1015,"Ġstr":1016,"ĠBl":1017,"ention":1018,"aph":1019,"asley":1020,"Ġalready":1021,"Ġread":1022,"ng":1023,"Ġnew":1024,"ĠTed":1025,"aught":1026,"Ġschool":1027,"Ġmean":1028,"ating":1029,"Ġheard":1030,"hes":1031,"izard":1032,"ably":1033,"Ġsmile":1034,"Ġbehind":1035,"Ġtried":1036,"Ġmind":1037,"Ġold":1038,"Draco":1039,"Ġuntil":1040,"aphne":1041,"anger":1042,"ĠWeasley":1043,"Ġalways":1044,"day":1045,"Ġonce":1046,"Ġgra":1047,"Ġtowards":1048,"Well":1049,"ci":1050,"aybe":1051,"ten":1052,"Ġtra":1053,"Ġherself":1054,"Ġalso":1055,"Ġbetter":1056,"Ġmat":1057,"Ġwait":1058,"Ġsmall":1059,"Ġcour":1060,"arly":1061,"Ġside":1062,"Ġexpl":1063,"ryff":1064,"Ġrest":1065,"ross":1066,"sw":1067,"ering":1068,"Oh":1069,"ĠU":1070,"ock":1071,"indor":1072,"az":1073,"ryffindor":1074,"Ġsound":1075,"ĠK":1076,"Ġpot":1077,"Ġmight":1078,"Ġcare":1079,"ching":1080,"ump":1081,"les":1082,"They":1083,"Ġsil":1084,"Ġper":1085,"Ġsomeone":1086,"Ġansw":1087,"ĠGryffindor":1088,"Ġfamily":1089,"Ġem":1090,"lyther":1091,"Ġset":1092,"ĠAl":1093,"ning":1094,"pping":1095,"Ġdoing":1096,"Ġsmiled":1097,"Ġopen":1098,"Ġfoll":1099,"Ġagainst":1100,"Ġsupp":1101,"av":1102,"Ġret":1103,"Ġhard":1104,"Ġsince":1105,"ĠGinny":1106,"Ġwouldn":1107,"Ġbest":1108,"ĠSlyther":1109,"Ġever":1110,"Ġwork":1111,"Ġimp":1112,"Ġclos":1113,"Ġmin":1114,"Ġdra":1115,"ord":1116,"ĠNeville":1117,"Ġeach":1118,"Ġaw":1119,"ĠDaphne":1120,"Ġfront":1121,"Ġjo":1122,"Ġsame":1123,"Ġbreat":1124,"Ġquickly":1125,"ater":1126,"Qu":1127,"Ġyears":1128,"Ġcr":1129,"\"\"":1130,"fully":1131,"ange":1132,"Ġspell":1133,"most":1134,"used":1135,"Ġparent":1136,"ĠHis":1137,"Ġcourse":1138,"ho":1139,"reak":1140,"aring":1141,"Ġquite":1142,"ĠGr":1143,"Ġname":1144,"orry":1145,"Ġwhis":1146,"Ġco":1147,"Ġeveryone":1148,"tered":1149,"Ġchild":1150,"Ġthree":1151,"Ġelse":1152,"Ġeverything":1153,"ently":1154,"Ġsurpr":1155,"Ġstand":1156,"Ġbook":1157,"Ġdone":1158,"Ġsecond":1159,"Ġfather":1160,"Ġwee":1161,"So":1162,"nc":1163,"ope":1164,"Ġgi":1165,"Ġstay":1166,"ream":1167,"ĠHer":1168,"Yes":1169,"Ġbelie":1170,"Ġparents":1171,"Ġhur":1172,"Ġconf":1173,"Ġgetting":1174,"Ġmother":1175,"Ġflo":1176,"ĠThere":1177,"tain":1178,"Ġhadn":1179,"Ġhome":1180,"Ġple":1181,"Ġide":1182,"Ġwalked":1183,"Ġquest":1184,"gg":1185,"Ġwithout":1186,"Ġsle":1187,"Ġnothing":1188,"Ġsk":1189,"med":1190,"Ġalmost":1191,"Ġquiet":1192,"Ġfeeling":1193,"Ġdif":1194,"Ġlove":1195,"Ġbegan":1196,"Ġwond":1197,"Ġinst":1198,"ured":1199,"ished":1200,"ister":1201,"ĠLuc":1202,"cted":1203,"iously":1204,"Ġthose":1205,"arc":1206,"ately":1207,"eah":1208,"Ġlot":1209,"ĠQu":1210,"Remus":1211,"ĠTeddy":1212,"ee":1213,"ned":1214,"ĠThat":1215,"Ġleast":1216,"ither":1217,"Ġstart":1218,"Ġrun":1219,"Ġstudents":1220,"ĠPeter":1221,"owing":1222,"Ġunderst":1223,"ens":1224,"Ġhappened":1225,"kay":1226,"Ġwizard":1227,"ense":1228,"Ġable":1229,"Ġpulled":1230,"bably":1231,"everus":1232,"less":1233,"Ġeye":1234,"ĠIf":1235,"Ġtalk":1236,"Ġpass":1237,"Ġlight":1238,"rent":1239,"ushed":1240,"Ġdark":1241,"adm":1242,"Ġla":1243,"li":1244,"Ġrec":1245,"erv":1246,"ooks":1247,"Ġsoon":1248,"ided":1249,"Ġhold":1250,"Ġgre":1251,"ĠMc":1252,"Ġob":1253,"ult":1254,"form":1255,"uggle":1256,"ween":1257,"Ġshook":1258,"ined":1259,"Ġcontin":1260,"ott":1261,"onag":1262,"Ġplace":1263,"aster":1264,"pect":1265,"onagall":1266,"Ġbad":1267,"Ġcomm":1268,"to":1269,"te":1270,"ĠWhat":1271,"Ġletter":1272,"ps":1273,"Ġstood":1274,"igh":1275,"Ġste":1276,"Ġbetween":1277,"Ġremem":1278,"Ġfinally":1279,"Ġear":1280,"bus":1281,"gether":1282,"Ġtogether":1283,"ĠSlytherin":1284,"ement":1285,"Gonagall":1286,"Ġidea":1287,"Ġass":1288,"ĠDe":1289,"ained":1290,"app":1291,"ors":1292,"Ġanyone":1293,"Ġlife":1294,"Ġhaving":1295,"ĠIn":1296,"Ġdoesn":1297,"Ġsto":1298,"Ġmany":1299,"Ġrather":1300,"Ġplay":1301,"ret":1302,"Ġgive":1303,"Ġminut":1304,"Ġang":1305,"ighed":1306,"Ġmout":1307,"Ġyoung":1308,"Ġprobably":1309,"agrid":1310,"Ġseen":1311,"uring":1312,"Ġask":1313,"Ġ(":1314,"Ġarms":1315,"Ġwon":1316,"oud":1317,"ized":1318,"Ġcalled":1319,"ically":1320,"Ġsighed":1321,"Ġbreak":1322,"ren":1323,"airs":1324,"How":1325,"Ġreturn":1326,"oot":1327,"Ġkind":1328,"Ġrel":1329,"Ġwhisp":1330,"Ġstop":1331,"orning":1332,"Ġhear":1333,"rah":1334,"Ġwords":1335,"vers":1336,"ible":1337,"augh":1338,"Ġmouth":1339,"ĠMcGonagall":1340,"Ġexc":1341,"ugged":1342,"Ġfar":1343,"inking":1344,"Ġuse":1345,"Ġpers":1346,"Ġmust":1347,"bl":1348,"Ġblood":1349,"icked":1350,"Ġsim":1351,"Ġlaugh":1352,"Ġred":1353,"ird":1354,"Ġcomp":1355,"Ġyet":1356,"Ġactually":1357,"Ġmaking":1358,"Ġshr":1359,"Ġleave":1360,"issa":1361,"Ġbelieve":1362,"ness":1363,"ix":1364,"ying":1365,"âĢĵ":1366,"ued":1367,"rrah":1368,"Ġroll":1369,"sh":1370,"ead":1371,"ung":1372,"Ġgreat":1373,"cor":1374,"oke":1375,"ited":1376,"Ġfloor":1377,"dden":1378,"ib":1379,"emort":1380,"umm":1381,"oldemort":1382,"Ġunderstand":1383,"Sirius":1384,"Ġrepl":1385,"Ġsuch":1386,"ightly":1387,"Ġsudden":1388,"oon":1389,"Ġsqu":1390,"Ġfing":1391,"ached":1392,"Ġlater":1393,"Ġmorning":1394,"Ġbrother":1395,"Ġbooks":1396,"ughed":1397,"arcissa":1398,"Ġmeet":1399,"Ġmem":1400,"ĠMin":1401,"Ġbreath":1402,"Ġlaughed":1403,"Ġopened":1404,"Ġlist":1405,"ower":1406,"Ġhalf":1407,"ĠThis":1408,"Ġtaking":1409,"Ġless":1410,"Ġtalking":1411,"Ġacc":1412,"ĠHagrid":1413,"ail":1414,"Ġcast":1415,"ĠSt":1416,"unt":1417,"Ġdiffe":1418,"ertain":1419,"ply":1420,"Ġfire":1421,"Ġdef":1422,"ĠBlack":1423,"Ġwar":1424,"ĠHow":1425,"Ġsorry":1426,"rest":1427,"Ġits":1428,"ale":1429,"ract":1430,"Ġworld":1431,"fect":1432,"Ġneeded":1433,"Ġsleep":1434,"Ġgrinn":1435,"Ġwhispered":1436,"Ġsitting":1437,"Ġinside":1438,"Ġonto":1439,"bo":1440,"igg":1441,"Ġpret":1442,"Ġwind":1443,"Ġlo":1444,"Ġwrong":1445,"Ġheld":1446,"Ġperson":1447,"Ġslow":1448,"Yeah":1449,"Ġused":1450,"Ġreas":1451,"Ġalong":1452,"eg":1453,"ĠNo":1454,"Ġpast":1455,"der":1456,"There":1457,"Ġnotic":1458,"fort":1459,"ĠSeverus":1460,"orge":1461,"Ġinv":1462,"Ġeas":1463,"br":1464,"Ġheart":1465,"Ġcons":1466,"ped":1467,"Ġgone":1468,"Ġacross":1469,"ĠAs":1470,"Ġdet":1471,"ĠâĢĵ":1472,"iv":1473,"Ġcoming":1474,"Ġglanc":1475,"ĠGranger":1476,"corp":1477,"Ġkill":1478,"cy":1479,"Ġ1":1480,"ict":1481,"Ġmiss":1482,"Ġshoulder":1483,"ĠVoldemort":1484,"Ġvis":1485,"Ġinter":1486,"Ġclose":1487,"akes":1488,"Ġstopped":1489,"Ġdro":1490,"ĠMar":1491,"ening":1492,"Do":1493,"Ġwom":1494,"ĠFred":1495,"Ġhope":1496,"corpius":1497,"Ġwatched":1498,"bbed":1499,"Ġsort":1500,"ocked":1501,"...\"":1502,"Ġground":1503,"Ġev":1504,"Ġfrown":1505,"Ġpoint":1506,"Ġfeet":1507,"eorge":1508,"ĠSo":1509,"Ġhour":1510,"Ġplan":1511,"Ġquestion":1512,"Ġinc":1513,"Ġdist":1514,"ern":1515,"Ġteac":1516,"aned":1517,"Ġdr":1518,"Ġloud":1519,"ĠYrrah":1520,"Ġisn":1521,"apter":1522,"Ġins":1523,"ny":1524,"Ġposs":1525,"Ġdecided":1526,"Ġkept":1527,"ush":1528,"od":1529,"iddle":1530,"ru":1531,"Ġfig":1532,"Ġlear":1533,"adma":1534,"Ġcor":1535,"Ġboys":1536,"Ġstared":1537,"Ġcat":1538,"Ġdeep":1539,"ĠAr":1540,"This":1541,"ced":1542,"itc":1543,"Ġfall":1544,"ction":1545,"Ġresp":1546,"Ġmatter":1547,"Ġfact":1548,"Ġfine":1549,"Ġfell":1550,"Ġsays":1551,"Ġdifferent":1552,"ition":1553,"Ġwall":1554,"iling":1555,"If":1556,"ual":1557,"Ġfun":1558,"ĠNot":1559,"urs":1560,"Ġsent":1561,"Ġthese":1562,"Ġtri":1563,"cept":1564,"Not":1565,"Ġstra":1566,"Ġdisapp":1567,"Al":1568,"Ġreason":1569,"Ġair":1570,"Ġfore":1571,"Ġfull":1572,"Ġcomple":1573,"Ġfur":1574,"Ġpar":1575,"antly":1576,"aced":1577,"ial":1578,"Ġpain":1579,"ncle":1580,"osed":1581,"Ġfour":1582,"Ġes":1583,"ric":1584,"aps":1585,"Why":1586,"Ġprom":1587,"ĠWhen":1588,"Ġwhole":1589,"Ġbroom":1590,"Ġsoft":1591,"eared":1592,"Ġmut":1593,"Ġeither":1594,"Ġnoticed":1595,"ĠAll":1596,"Ġprot":1597,"Ġminutes":1598,"ĠPadma":1599,"Ġchest":1600,"Ġtrain":1601,"Ġreplied":1602,"ec":1603,"Ġmon":1604,"Ġothers":1605,"Ġmove":1606,"Ġhop":1607,"Ġmay":1608,"Ġann":1609,"Ġsuddenly":1610,"head":1611,"ĠAlbus":1612,".'":1613,"/\\":1614,"Ġstory":1615,"Ġbu":1616,"ears":1617,"Ġforward":1618,"Ġmeant":1619,"ph":1620,"Ġtimes":1621,"Ġhall":1622,"Ġattention":1623,"Ġremember":1624,"iew":1625,"Ġstanding":1626,"arge":1627,"Ġadm":1628,"Ġhappy":1629,"Ġnice":1630,"aged":1631,"ĠMrs":1632,"Ġweek":1633,"ĠLucy":1634,"Ġtop":1635,"Ġwoman":1636,"idditch":1637,"iting":1638,"Ġpres":1639,"Ġokay":1640,"Ġpat":1641,"Ġdisc":1642,"Ġcaught":1643,"aken":1644,"ĠGeorge":1645,"Ġcertain":1646,"Ġpotion":1647,"ĠThen":1648,"ged":1649,"uth":1650,"Ġslowly":1651,"ased":1652,"Ġmet":1653,"Ġru":1654,"olog":1655,"Ġsaying":1656,"Ġcontinued":1657,"aven":1658,"Ġexp":1659,"Ġunc":1660,"Ġblack":1661,"ĠNarcissa":1662,"Ġalone":1663,"Ġran":1664,"erest":1665,"Ġcar":1666,"Ġkiss":1667,"Ġoutside":1668,"Ġlips":1669,"Ġseat":1670,"Ġmar":1671,"Ġbody":1672,"Ġglass":1673,"Ġwitch":1674,"Ġreg":1675,"ervous":1676,"ize":1677,"Ġsurprised":1678,"ĠHall":1679,"ey":1680,"Ġcut":1681,"Ġmaybe":1682,"ired":1683,"Ġhurt":1684,"Ġap":1685,"alm":1686,"Ġwindow":1687,"Ġyell":1688,"Ġfollowed":1689,"Ġter":1690,"Ġreached":1691,"anged":1692,"Ġser":1693,"As":1694,"Ġpointed":1695,"Ġnervous":1696,"ĠFl":1697,"hel":1698,"Ġthinking":1699,"Ġform":1700,"ures":1701,"Don":1702,"ĠDo":1703,"âĢ¦\"":1704,"Ġcommon":1705,"joy":1706,"Ġshow":1707,"Ġdays":1708,"Ġquietly":1709,"When":1710,"Ġstep":1711,"inner":1712,"Ġswe":1713,"Ġguess":1714,"ings":1715,"Ġmuggle":1716,"ys":1717,"Ġshrugged":1718,"James":1719,"Ġjump":1720,"Ġholding":1721,"vel":1722,"Ġinterest":1723,"Ġdire":1724,"Ġcomplete":1725,"Ġentire":1726,"Ġbus":1727,"ident":1728,"medi":1729,"where":1730,"Ġshout":1731,"Ġslightly":1732,"ations":1733,"aise":1734,"Ġbro":1735,"Ġgrinned":1736,"orted":1737,"Ġgirls":1738,"pected":1739,"Ġign":1740,"Ġraised":1741,"Ġplease":1742,"aving":1743,"istry":1744,"Ġtrou":1745,"Ġagre":1746,"Ġchee":1747,"Ġowl":1748,"lves":1749,"Ġready":1750,"Ġshort":1751,"Ġyes":1752,"Ġexact":1753,"Ġmonth":1754,"Ġhor":1755,"ier":1756,"Ġsister":1757,"Ġstaring":1758,"Ġbare":1759,"ene":1760,"ron":1761,"Ġcold":1762,"ates":1763,"ipped":1764,"Ġlarge":1765,"Ġimmedi":1766,"ĠDark":1767,"cess":1768,"Ġgrou":1769,"Ġanswer":1770,"Ġinform":1771,"ĠOr":1772,"sed":1773,"ĠMad":1774,"Ġconsid":1775,"Ġconvers":1776,"Ġsumm":1777,"Ġref":1778,"rist":1779,"Ġanswered":1780,"Ġpretty":1781,"Ġconc":1782,"Ġbig":1783,"Ġenjoy":1784,"claw":1785,"Ġscream":1786,"Ġfight":1787,"Ġdorm":1788,"Ġteacher":1789,"ical":1790,"ĠUncle":1791,"Calla":1792,"vered":1793,"Ġmagical":1794,"Ġsupposed":1795,"Ġtaken":1796,"Ġspeak":1797,"Ġson":1798,"icul":1799,"Ġduring":1800,"Ġrolled":1801,"anks":1802,"ina":1803,"Ġgaz":1804,"ored":1805,"Ġleg":1806,"Ġmoved":1807,"avenclaw":1808,"Ġoffice":1809,"/\\/\\":1810,"Are":1811,"Ġfly":1812,"ĠOn":1813,"rey":1814,"asm":1815,"Ġsna":1816,"rif":1817,"ject":1818,"Ġbra":1819,"ĠQuidditch":1820,"ingly":1821,"Ġext":1822,"Ġarri":1823,"Ġpract":1824,"Ġdinner":1825,"aughter":1826,"Ġwaiting":1827,"Ġinstead":1828,"Ġimmediately":1829,"-\"\"":1830,"Ġtoday":1831,"mb":1832,"Ġchange":1833,"Ġfinished":1834,"Ġmanaged":1835,"Ġgrabbed":1836,"Ġstom":1837,"Ġfingers":1838,"Ġcry":1839,"Ġchapter":1840,"ĠRavenclaw":1841,"Ġwarm":1842,"int":1843,"Ġworry":1844,"upin":1845,"Ġfood":1846,"ĠNow":1847,"Ġglanced":1848,"Ġturning":1849,"ror":1850,"Ġreading":1851,"bes":1852,"Ġhit":1853,"Ted":1854,"ken":1855,"Ġadmit":1856,"ĠScorpius":1857,"uror":1858,"ressed":1859,"iding":1860,"Ġgreen":1861,"Ġhowever":1862,"Ġwalking":1863,"me":1864,"body":1865,"aut":1866,"Ġcorn":1867,"fast":1868,"ĠPer":1869,"Ġexplained":1870,"Ġdou":1871,"Ġlooks":1872,"Ġmess":1873,"Ġcharm":1874,"ets":1875,"Ġind":1876,"Ġprofessor":1877,"Ġclosed":1878,"Ron":1879,"Ġexpect":1880,"Ġstraight":1881,"ĠAt":1882,"Ġbring":1883,"Ġcouple":1884,"Ġworried":1885,"Thank":1886,"haps":1887,"ĠMy":1888,"Ġed":1889,"ottom":1890,"Ġexactly":1891,"aim":1892,"Ġrealized":1893,"Ġlibr":1894,"Ġmuttered":1895,"Ġshut":1896,"rom":1897,"ork":1898,"Now":1899,"ime":1900,"rie":1901,"Ġgroup":1902,"Ġrunning":1903,"ories":1904,"ella":1905,"Ġolder":1906,"Ġconversation":1907,"ĠAfter":1908,"My":1909,"Ġbarely":1910,"rought":1911,"Ġgiving":1912,"ushing":1913,"Ġsho":1914,"Ġfav":1915,"Ġanyway":1916,"Ġhappen":1917,"Ġbes":1918,"Ġpap":1919,"ub":1920,"anded":1921,"Ġperfect":1922,"unch":1923,"read":1924,"Ġlost":1925,"Ġsign":1926,"Ġwatching":1927,"Ġsub":1928,"Ġadded":1929,"Ġbright":1930,"uffle":1931,"Ġappro":1932,"Ġfrowned":1933,"Ġdel":1934,"Ġnear":1935,"Ġsmir":1936,"aused":1937,"Ġmyself":1938,"Ġsend":1939,"Who":1940,"Ġnorm":1941,"Ġlibrary":1942,"ining":1943,"Ġbrought":1944,"Ġrobes":1945,"Ġdraw":1946,"itchen":1947,"ides":1948,"Ġchair":1949,"ĠFor":1950,"Ġseeing":1951,"Ġchildren":1952,"eng":1953,"Ġbag":1954,"Ġpie":1955,"Ġtrouble":1956,"Ġcloser":1957,"Ġkitchen":1958,"In":1959,"Ġclot":1960,"ips":1961,"Ġhon":1962,"irt":1963,"ĠTheo":1964,"ĠLupin":1965,"Ġspot":1966,"Ġsnapped":1967,"Ġfree":1968,"Ġeat":1969,"ĠWith":1970,"Ġbreakfast":1971,"ian":1972,"Ġdesk":1973,"oph":1974,"ĠBe":1975,"Ġsir":1976,"Ġstairs":1977,"ters":1978,"Ġexplain":1979,"Ġtears":1980,"Ġpress":1981,"arr":1982,"Ġtou":1983,"ĠGreat":1984,"mas":1985,"itely":1986,"Ġhu":1987,"Ġalright":1988,"Ġfa":1989,"ĠChrist":1990,"vent":1991,"peci":1992,"Ġsus":1993,"lease":1994,"Ġwater":1995,"Ġstomach":1996,"ought":1997,"ili":1998,"Ġobv":1999,"Ġfoot":2000,"ash":2001,"Ġgiven":2002,"orrow":2003,"inked":2004,"Ġcompletely":2005,"Is":2006,"roll":2007,"ĠDeath":2008,"Ġabs":2009,"asmine":2010,"Ġadd":2011,"On":2012,"Ġdanger":2013,"Ġstuff":2014,"blem":2015,"Ġcol":2016,"Ġchuck":2017,"selves":2018,"Ġweren":2019,"Ġrep":2020,"Ġimport":2021,"Ġsever":2022,"ĠLord":2023,"lin":2024,"puff":2025,"Ġfoc":2026,"ĠJust":2027,"Just":2028,"ufflepuff":2029,"pecially":2030,"ĠBlaise":2031,"Ġpotions":2032,"Ġspoke":2033,"anna":2034,"ute":2035,"Ġcompl":2036,"Ġforg":2037,"Ġsafe":2038,"Ġtrans":2039,"Ġparch":2040,"Ġmur":2041,"Ġthank":2042,"sit":2043,"Ġtrue":2044,"unk":2045,"Ġsilence":2046,"Ġgotten":2047,"Ġcup":2048,"una":2049,"ively":2050,"Ġcorner":2051,"olf":2052,"Ġseveral":2053,"Ġthro":2054,"Ġmention":2055,"Ġconfused":2056,"Ġimag":2057,"Ġpushed":2058,"Ġproblem":2059,"Ġbas":2060,"aning":2061,"ĠChristmas":2062,"frey":2063,"Ġcase":2064,"achel":2065,"ĠPom":2066,"ression":2067,"Ġspells":2068,"oria":2069,"Ġrev":2070,"ĠMagic":2071,"Ġeyeb":2072,"ĠMinistry":2073,"use":2074,"udd":2075,"Ġgaze":2076,"Ġparchment":2077,"Ġcalm":2078,"oring":2079,"oney":2080,"Ġgrow":2081,"Ġfill":2082,"amp":2083,"ĠMaybe":2084,"Ġshaking":2085,"Ġnose":2086,"Ġago":2087,"Ġstepped":2088,"cc":2089,"Ġbur":2090,"Ġcoll":2091,"ĠHufflepuff":2092,"ards":2093,"Ġdead":2094,"Ġagreed":2095,"ĠWhy":2096,"Ġleaving":2097,"Ġarg":2098,"ĠWh":2099,"Ġscar":2100,"Ġcastle":2101,"amed":2102,"Ġknowing":2103,"bbing":2104,"Ġtelling":2105,"Ġeyebrow":2106,"Ġshoulders":2107,"ursley":2108,"ĠAn":2109,"ĠRose":2110,"udge":2111,"upid":2112,"Ġdoub":2113,"Good":2114,"Ġsne":2115,"ount":2116,"Ġglad":2117,"Ġsense":2118,"rell":2119,"ising":2120,"ĠDursley":2121,"Ġchance":2122,"Ġteam":2123,"ery":2124,"Ġlonger":2125,"Ġopp":2126,"Ġknows":2127,"Ġsimply":2128,"Of":2129,"isted":2130,"aud":2131,"gon":2132,"Ġannoy":2133,"Ġce":2134,"ĠEvery":2135,"Ġstrange":2136,"work":2137,"icking":2138,"Ġhours":2139,"Ġcreat":2140,"ike":2141,"Ġhigh":2142,"Ġwrite":2143,"Ġcross":2144,"acked":2145,"aid":2146,"ony":2147,"Ġspent":2148,"how":2149,"St":2150,"Ġsurprise":2151,"Ġdem":2152,"Ġclear":2153,"Ġsing":2154,"Ġwalk":2155,"oody":2156,"ĠMiss":2157,"Ġprotect":2158,"Ġpassed":2159,"Ġexcited":2160,"ĠJasmine":2161,"Ġlate":2162,"ĠPomfrey":2163,"Then":2164,"ĠâĢ¦":2165,"Ġthroat":2166,"Ġtwins":2167,"Ġdeal":2168,"Ġyourself":2169,"Ġwhite":2170,"Ġwonder":2171,"Ġpower":2172,"Ġreturned":2173,"Ġwondered":2174,"After":2175,"Ġheal":2176,"00":2177,"Ġangry":2178,"Ġfive":2179,"oony":2180,"Ġfigure":2181,"-\"":2182,"ift":2183,"Ġworking":2184,"ĠEven":2185,"ows":2186,"Ġblond":2187,"Ġpur":2188,"Ġeff":2189,"Ġstupid":2190,"by":2191,"Ġshot":2192,"Ġtone":2193,"Ġwide":2194,"imes":2195,"Come":2196,"Ġbel":2197,"Ġappeared":2198,"phe":2199,"Ġclothes":2200,"Snape":2201,"Ġproper":2202,"Ġsmiling":2203,"Ġremind":2204,"Ġlow":2205,"Ġwra":2206,"Ġnormal":2207,"usan":2208,"uss":2209,"Ġblue":2210,"Ġapolog":2211,"Ġknown":2212,"its":2213,"Ġlaughing":2214,"Ġdropped":2215,"Ġhaven":2216,"Ġwhatever":2217,"erlin":2218,"Ġpossible":2219,"Ġgrin":2220,"Ġtea":2221,"...\"\"":2222,"though":2223,"Ġchanged":2224,"Ġfear":2225,"ended":2226,"Ġsight":2227,"Ġimportant":2228,"Ġempt":2229,"Ġbeside":2230,"iness":2231,"Ġhat":2232,"ested":2233,"initely":2234,"Ġgen":2235,"osp":2236,"Ġhum":2237,"Ġsecret":2238,"Ġstrong":2239,"ging":2240,"Ġnearly":2241,"Ġheav":2242,"Ġthoughts":2243,"Ġleaned":2244,"Ġpaper":2245,"Ġnote":2246,"Ġplaced":2247,"Ġshar":2248,"inning":2249,"Ġav":2250,"Ġgas":2251,"Ġkid":2252,"itten":2253,"Ġpoints":2254,"Ġclearly":2255,"Professor":2256,"ility":2257,"Ġpulling":2258,"Ġsummer":2259,"Ġgro":2260,"olly":2261,"Ġbox":2262,"Ġdeath":2263,"ner":2264,"Ġwatch":2265,"orc":2266,"ital":2267,"Did":2268,"Ġph":2269,"mm":2270,"Ġwhe":2271,"Ġri":2272,"Ġtired":2273,"ĠAst":2274,"iff":2275,"otion":2276,"Ġglared":2277,"Ġrelie":2278,"ĠLucius":2279,"ĠSoph":2280,"Ġcomfort":2281,"irth":2282,"Ġquestions":2283,"Ġshouted":2284,"Ġallowed":2285,"ĠMadam":2286,"Ġlead":2287,"annah":2288,"ze":2289,"aces":2290,"Ġcrow":2291,"ĠSn":2292,"ulus":2293,"udley":2294,"Ġskin":2295,"Ġsigh":2296,"Ġgigg":2297,"Ġsugg":2298,"ax":2299,"bby":2300,"Mr":2301,"Ġpicked":2302,"Ġones":2303,"ĠMuggle":2304,"Ġcorrid":2305,"ife":2306,"Okay":2307,"als":2308,"rill":2309,"Ġjumped":2310,"For":2311,"Ġsad":2312,"ounc":2313,"ati":2314,"Ġton":2315,"Ġstre":2316,"Ġstudent":2317,"Ġexpected":2318,"blood":2319,"Ġbar":2320,"Ġflying":2321,"ĠMoony":2322,"Ġtrust":2323,"Ġreview":2324,"auld":2325,"ĠQuir":2326,"ĠLuna":2327,"ays":2328,"artment":2329,"ĠAuror":2330,"ibly":2331,"Ġexam":2332,"Ġcoun":2333,"Ġespecially":2334,"Ġarrived":2335,"Ġtre":2336,"Ġten":2337,"Ġbab":2338,"Ġbeaut":2339,"anging":2340,"kward":2341,"Ġdi":2342,"Ġpock":2343,"With":2344,"Ġtreat":2345,"Ġwin":2346,"Ġluck":2347,"ernon":2348,"Ġ2":2349,"Ġsick":2350,"Ġawkward":2351,"Ġexpression":2352,"Ġempty":2353,"Ġgently":2354,"Ġspend":2355,"Ġtight":2356,"Ġdad":2357,"clud":2358,"Ġhell":2359,"rol":2360,"Ġweeks":2361,"Ġbother":2362,"Ġgold":2363,"Ġweird":2364,"Ġfle":2365,"Ġdear":2366,"Ġscr":2367,"Ġcrowd":2368,"Ġburn":2369,"Ġliving":2370,"Ġneck":2371,"Ch":2372,"Ġnotice":2373,"Ġfurther":2374,"ospital":2375,"Ġdream":2376,"Ġexcept":2377,"Ġtom":2378,"Ġele":2379,"Ġblinked":2380,"Ġscared":2381,"All":2382,"Ġbecome":2383,"Ġho":2384,"ĠChar":2385,"ogn":2386,"Ġguys":2387,"ecause":2388,"more":2389,"alina":2390,"essalina":2391,"uggles":2392,"Ġliked":2393,"Ġtruth":2394,"ĠMaraud":2395,"Ġsilent":2396,"rible":2397,"Ġhoped":2398,"Ġthrow":2399,"Ġport":2400,"Ġasking":2401,"Ġgest":2402,"Ġwaved":2403,"His":2404,"Ġworse":2405,"Hey":2406,"Ġgrand":2407,"atur":2408,"bel":2409,"Ġmoving":2410,"Ġrespond":2411,"bered":2412,"ĠâĢĶ":2413,"Ġinformation":2414,"Sh":2415,"lu":2416,"ones":2417,"ĠRiddle":2418,"Ġfair":2419,"isk":2420,"Ġthemselves":2421,"99":2422,"Ġmir":2423,"ote":2424,"ansy":2425,"Ġhonest":2426,"claim":2427,"Ġsounded":2428,"Let":2429,"bs":2430,"iful":2431,"Ġfollow":2432,"Ġpict":2433,"ĠSh":2434,"ourn":2435,"Ġball":2436,"Ġshop":2437,"raid":2438,"Ġaren":2439,"oak":2440,"Ġmis":2441,"ĠReg":2442,"Ġrecogn":2443,"Teddy":2444,"ces":2445,"Ġaf":2446,"ĠSusan":2447,"At":2448,"ĠMessalina":2449,"Ginny":2450,"Ġdefinitely":2451,"Ġattem":2452,"Ġtonight":2453,"ination":2454,"Ġled":2455,"Ġpair":2456,"Ġexper":2457,"Ġprep":2458,"Ġlearn":2459,"not":2460,"Ġocc":2461,"olute":2462,"Ġshouldn":2463,"Ġnumb":2464,"Ġsitu":2465,"Ġhug":2466,"Ġemb":2467,"Ġyelled":2468,"Ġbath":2469,"ĠTom":2470,"Ġtomorrow":2471,"Ġclassroom":2472,"tic":2473,"Ġfinger":2474,"pite":2475,"ĠCl":2476,"Ġpol":2477,"Maybe":2478,"riv":2479,"ĠVernon":2480,"Ġblonde":2481,"Ġthird":2482,"Ġfavor":2483,"Ġearly":2484,"tering":2485,"Ġhesit":2486,"ĠDudley":2487,"Ġrid":2488,"Ġassum":2489,"Ġgame":2490,"ĠOne":2491,"ER":2492,"Ġbirth":2493,"Ġmakes":2494,"acing":2495,"Bl":2496,"Ġpay":2497,"ĠAunt":2498,"Ġline":2499,"Ġattack":2500,"Ġ.":2501,"ĠQuirrell":2502,"ĠHannah":2503,"Ġworked":2504,"Ġclasses":2505,"Ġanymore":2506,"fig":2507,"Ġcried":2508,"Ġoffered":2509,"eal":2510,"unia":2511,"set":2512,"ĠHouse":2513,"Ġcheck":2514,"Ġtow":2515,"Ġcra":2516,"arrow":2517,"Ġparticul":2518,"ages":2519,"Ġmoney":2520,"Ġmonths":2521,"Her":2522,"pic":2523,"Ġrequ":2524,"ments":2525,"Ġblank":2526,"Ġeasy":2527,"zy":2528,"Ġfro":2529,"Ġhanded":2530,"rit":2531,"Ġseems":2532,"Ġafraid":2533,"Ġaff":2534,"Ġodd":2535,"ĠPro":2536,"Ġthrew":2537,"Ġlif":2538,"Ġwizards":2539,"Ġcertainly":2540,"Be":2541,"ask":2542,"Ġmeeting":2543,"iliar":2544,"Ġwood":2545,"ashed":2546,"rod":2547,"Your":2548,"lier":2549,"Lily":2550,"fic":2551,"Ġremembered":2552,"the":2553,"ĠAm":2554,"Ġsoftly":2555,"Ġdirection":2556,"Ġlunch":2557,"Ġconv":2558,"Ġcatch":2559,"Ġpiece":2560,"Ah":2561,"leur":2562,"Ġabove":2563,"Ġcheeks":2564,"Ġforgot":2565,"Ġfut":2566,"Ġmiddle":2567,"ney":2568,"ald":2569,"Dumbledore":2570,"Ġcous":2571,"oming":2572,"kes":2573,"Ġchar":2574,"Ġguard":2575,"Ġfollowing":2576,"ĠAstoria":2577,"Ġfre":2578,"Ġmemory":2579,"Ġavo":2580,"Can":2581,"edric":2582,"Ġpresent":2583,"Ġcre":2584,"Ġwaited":2585,"Ġedge":2586,"Ġmeans":2587,"uly":2588,"ishing":2589,"Ġanger":2590,"Ġdangerous":2591,"ison":2592,"ield":2593,"Ġmist":2594,"Ġpaused":2595,"Ġwants":2596,"Ġesc":2597,"ĠPercy":2598,"Ġsingle":2599,"what":2600,"ĠSome":2601,"but":2602,"come":2603,"Ġforced":2604,"uel":2605,"bottom":2606,"Ġgod":2607,"idden":2608,"ĠPetunia":2609,"Ġcap":2610,"enty":2611,"roud":2612,"ander":2613,"Ġwriting":2614,"ĠVic":2615,"Ġdied":2616,"arently":2617,"ived":2618,"Ġsy":2619,"Ġrepe":2620,"Ġorder":2621,"Ġjob":2622,"Ġfilled":2623,"Ġbeautiful":2624,"aters":2625,"Ġusing":2626,"Ġusual":2627,"Ġjoin":2628,"Ġcorre":2629,"apped":2630,"bed":2631,"Ġmus":2632,"Ġdress":2633,"ĠMoody":2634,"Ġadv":2635,"ĠDursleys":2636,"ridge":2637,"like":2638,"Ġevent":2639,"Luc":2640,"off":2641,"Ġpun":2642,"Ġcount":2643,"rup":2644,"Ġlay":2645,"ament":2646,"Ġnews":2647,"Ġcarefully":2648,"ĠMerlin":2649,"Ġletters":2650,"Ġdiscuss":2651,"Ġgri":2652,"Ġhissed":2653,"ĠPotions":2654,"Ġended":2655,"Ġcloak":2656,"Ġsituation":2657,"Ġmad":2658,"usion":2659,"Ġearlier":2660,"Ġchuckled":2661,"wh":2662,"Ġcir":2663,"Ġoften":2664,"eth":2665,"Ġpos":2666,"ĠMarauders":2667,"Ġsun":2668,"ocking":2669,"Ġloved":2670,"Ġnod":2671,"Ġputting":2672,"Ġwish":2673,"Ġnone":2674,"Ġstarting":2675,"OU":2676,"Where":2677,"aked":2678,"Ġfix":2679,"Ġbat":2680,"Ġpale":2681,"âĢĶâĢĶ":2682,"Ġminute":2683,"Ġhide":2684,"ĠWell":2685,"Ġkilled":2686,"Ġproud":2687,"Ġcurse":2688,"Ġvisit":2689,"tig":2690,"rely":2691,"Ġdisg":2692,"father":2693,"stairs":2694,"Ġshock":2695,"Ġlive":2696,"Ġkeeping":2697,"Ġdoubt":2698,"Ġhuff":2699,"ocol":2700,"Ġbroke":2701,"Ġcorridor":2702,"you":2703,"Ġtall":2704,"ĠTo":2705,"Ġswall":2706,"Ġfuture":2707,"ĠPansy":2708,"Ġstudy":2709,"tigrew":2710,"Ġhol":2711,"Ġdaughter":2712,"Ġpan":2713,"ucked":2714,"Ġhate":2715,"Ġinf":2716,"Ġheaded":2717,"Ġflat":2718,"Ġears":2719,"iant":2720,"Ġsix":2721,"Ġcomment":2722,"inted":2723,"Ġevening":2724,"Ġwhether":2725,"To":2726,"lia":2727,"Ġfamiliar":2728,"ĠRegulus":2729,"Ġlikely":2730,"Ġcheek":2731,"Wh":2732,"Ġhelped":2733,"Ġpu":2734,"Ġweak":2735,"ĠLong":2736,"ĠSlytherins":2737,"Albus":2738,"ping":2739,"Ġabsolute":2740,"ĠCharlie":2741,"rel":2742,"ĠNat":2743,"Ġbecame":2744,"Ġcontrol":2745,"Ġhoping":2746,"ape":2747,"Ġsweet":2748,"Ġpocket":2749,"ĠZ":2750,"ude":2751,"ience":2752,"vis":2753,"Ġwearing":2754,"Ġage":2755,"rance":2756,"Ġdest":2757,"Ġreact":2758,"Ġentered":2759,"Ġpromise":2760,"Ġround":2761,"ahlia":2762,"Ġmemories":2763,"Ġdrink":2764,"Ġir":2765,"any":2766,"ĠHeadm":2767,"ĠFleur":2768,"Ġsett":2769,"Ġnarrow":2770,"Ġgreet":2771,"Severus":2772,"eed":2773,"uliet":2774,"Ġbaby":2775,"bers":2776,"Ġer":2777,"Ġupon":2778,"Ġbirthday":2779,"Ġsquee":2780,"Ġforget":2781,"Ġhung":2782,"place":2783,"Ġlegs":2784,"Ġfocus":2785,"Ex":2786,"ular":2787,"Ġamaz":2788,"Ġwritten":2789,"Thanks":2790,"Ġhomework":2791,"Ġmirror":2792,"Ġbathroom":2793,"ues":2794,"vering":2795,"Ġseconds":2796,"Ġhot":2797,"Ġmen":2798,"ĠHead":2799,"Ġdeser":2800,"Ġsuppose":2801,"Ġsmell":2802,"cial":2803,"rified":2804,"uct":2805,"Ġtightly":2806,"ĠDid":2807,"inally":2808,"ices":2809,"Ġsomehow":2810,"ugging":2811,"leep":2812,"Ġthreat":2813,"ĠDad":2814,"Ġobviously":2815,"ĠLongbottom":2816,"onse":2817,"pted":2818,"Ġtem":2819,"ĠCedric":2820,"ĠPettigrew":2821,"Ġcovered":2822,"now":2823,"Ġpure":2824,"Ġusually":2825,"Ġperhaps":2826,"Ġstayed":2827,"Ġlip":2828,"ĠPat":2829,"ooking":2830,"Ġshowed":2831,"Ġmum":2832,"mbridge":2833,"Ġcousin":2834,"Ġadmitted":2835,"ĠTr":2836,"Ġplate":2837,"Ġstuck":2838,"Ġsomewhere":2839,"izing":2840,"Ġappre":2841,"Ġbloody":2842,"Ġord":2843,"Ġwanting":2844,"Ġresponse":2845,"Sorry":2846,"Ġdate":2847,"ency":2848,"ĠMolly":2849,"Ġnervously":2850,"Right":2851,"Ġleaning":2852,"Ġflew":2853,"Ġdragon":2854,"Ġinterrup":2855,"Ġfit":2856,"Ġdri":2857,"Ġquill":2858,"ĠEaters":2859,"oun":2860,"ocolate":2861,"ĠDef":2862,"irst":2863,"ĠCharm":2864,"Ġburst":2865,"ĠSc":2866,"ĠDon":2867,"Ġupset":2868,"ustr":2869,"Ġcouch":2870,"Ġmatch":2871,"Ġfast":2872,"Ġteeth":2873,"Ġdisappeared":2874,"ĠSophia":2875,"Ġappear":2876,"Ġaware":2877,"Ġdiffic":2878,"Ġdetention":2879,"Ġsubject":2880,"Ġdifficult":2881,"omfort":2882,"Every":2883,"eter":2884,"Ġwondering":2885,"Scorpius":2886,"Ġtalked":2887,"Ġtest":2888,"ghorn":2889,"Ġtrunk":2890,"Ġtor":2891,"vious":2892,"ĠRo":2893,"Ġfireplace":2894,"Ġglasses":2895,"Ġagree":2896,"Ġsuspic":2897,"ĠMum":2898,"ĠFudge":2899,"lughorn":2900,"Ġstone":2901,"Ġanim":2902,"Ġsuc":2903,"Ġcrying":2904,"uration":2905,"Ġwithin":2906,"Ġhurried":2907,"Ġpink":2908,"Ġbrown":2909,"ants":2910,"race":2911,"Ġfirm":2912,"Ġremain":2913,"no":2914,"Ġhospital":2915,"ouses":2916,"Ġglance":2917,"ances":2918,"Neville":2919,"ches":2920,"we":2921,"Ġtroll":2922,"Ġtruly":2923,"Ġrat":2924,"Ġfalling":2925,"ected":2926,"Ġdie":2927,"Ġyounger":2928,"Ġrece":2929,"Ġself":2930,"Ġwerew":2931,"Ġeasily":2932,"aff":2933,"ls":2934,"âĢĶ\"\"":2935,"Ġmoments":2936,"Ġmissed":2937,"Ġinteresting":2938,"ĠDella":2939,"Ġplaying":2940,"Ġgasped":2941,"let":2942,"noon":2943,"ĠAlley":2944,"Ġmain":2945,"Ġdog":2946,"Ġview":2947,"Ġsometimes":2948,"agon":2949,"ously":2950,"Ġbroken":2951,"Ġposition":2952,"Ġ3":2953,"onks":2954,"cing":2955,"Ġdam":2956,"rig":2957,"ĠDi":2958,"ults":2959,"omething":2960,"Ġcontinue":2961,"und":2962,"ĠOnce":2963,"Ġholid":2964,"Ġhated":2965,"ausing":2966,"rief":2967,"ities":2968,"ĠGre":2969,"Ġforehead":2970,"ĠIs":2971,"Ġstat":2972,"aint":2973,"Ġdirect":2974,"Ġcool":2975,"Ġlaughter":2976,"ific":2977,"Ġsteps":2978,"Ġsmirked":2979,"Ġcirc":2980,"born":2981,"erry":2982,"Ġdoors":2983,"Ġsnake":2984,"uthor":2985,"ines":2986,"inging":2987,"Ġincred":2988,"figuration":2989,"IN":2990,"Ġess":2991,"Ġasleep":2992,"Ġwhisper":2993,"Ġlearned":2994,"gain":2995,"Ġloudly":2996,"ĠHeadmaster":2997,"iny":2998,"Ġthr":2999,"aching":3000,"ĠWizard":3001,"anding":3002,"Ġuns":3003,"Ġcounter":3004,"wick":3005,"zed":3006,"fer":3007,"ept":3008,"Ġmoon":3009,"Ġlisten":3010,"Ġfold":3011,"Ġglare":3012,"band":3013,"ane":3014,"aded":3015,"ongue":3016,"Ġdragg":3017,"man":3018,"Ġsear":3019,"Ġwands":3020,"Ġinclud":3021,"ĠSe":3022,"stead":3023,"Ġparty":3024,"Ġbusy":3025,"Ġfavorite":3026,"Ġsol":3027,"ĠHowever":3028,"Ġpack":3029,"str":3030,"Ġsilver":3031,"Ġsounds":3032,"Ġdisappo":3033,"Ġmumbled":3034,"Ġshirt":3035,"Ġchocolate":3036,"ĠEx":3037,"Ġafternoon":3038,"Ġgroaned":3039,"Ġgrew":3040,"Ġgets":3041,"ĠMinister":3042,"Ġgrinning":3043,"ournament":3044,"Ġguil":3045,"auldron":3046,"ĠDahlia":3047,"Ġshif":3048,"Ġbeginning":3049,"Ġserious":3050,"Ġsimple":3051,"Ġsave":3052,"Ġteach":3053,"Ġextra":3054,"Ġinterrupted":3055,"ior":3056,"ient":3057,"ton":3058,"Ġlying":3059,"Ġjoined":3060,"Ġtouch":3061,"night":3062,"ĠRachel":3063,"Ġfault":3064,"aled":3065,"Ġexh":3066,"ĠGod":3067,"ipping":3068,"ĠSlughorn":3069,"ĠTH":3070,"Ġnotes":3071,"Ġbusiness":3072,"ounced":3073,"Ġinn":3074,"Ġdecis":3075,"~~":3076,"ĠWas":3077,"Ġconsidered":3078,"Re":3079,"lene":3080,"Ġid":3081,"itwick":3082,"tern":3083,"Ġthanks":3084,"Ġbelong":3085,"Ġsurround":3086,"Ġpleas":3087,"Ġpractice":3088,"idence":3089,"ember":3090,"Ġcurious":3091,"Ġpressed":3092,"Ġheavy":3093,"ĠProphe":3094,"Ġur":3095,"Ġspl":3096,"ĠUmbridge":3097,"Ġletting":3098,"Ġhappening":3099,"ĠHogs":3100,"Ġappreci":3101,"ĠOf":3102,"oss":3103,"acks":3104,"ledge":3105,"ĠGryffindors":3106,"Ġfigured":3107,"Ġterm":3108,"Ġpick":3109,"Ġconcer":3110,"Ġeyebrows":3111,"Ġreply":3112,"Ġshocked":3113,"ĠJuliet":3114,"Ġmurm":3115,"Ġwrapped":3116,"Ġgener":3117,"Ġsharp":3118,"Ġhus":3119,"Ġreve":3120,"Ġcho":3121,"Ġworth":3122,"Narcissa":3123,"Ġmaster":3124,"Ġfunny":3125,"Ġrelief":3126,"oken":3127,"oned":3128,"Ġchat":3129,"Ġpointing":3130,"Ġcent":3131,"Ġyeah":3132,"ĠDobby":3133,"arrass":3134,"ait":3135,"wise":3136,"Ġignored":3137,"Ġclim":3138,"Ġclean":3139,"Ġuncomfort":3140,"Ġhuge":3141,"Ġsettled":3142,"isa":3143,"Ġpromised":3144,"Ġdemanded":3145,"Please":3146,"Ġnames":3147,"ĠBell":3148,"Ġimagine":3149,"gy":3150,"Ġelf":3151,"unity":3152,"dding":3153,"thur":3154,"Ġrelation":3155,"Ġwear":3156,"Ġexch":3157,"ĠThank":3158,"Ġobs":3159,"Ġinvol":3160,"Alright":3161,"meade":3162,"oh":3163,"Ġwife":3164,"Ġstated":3165,"Ġscow":3166,"board":3167,"Ġeventually":3168,"An":3169,"Ġgather":3170,"imm":3171,"Ġenc":3172,"rilliant":3173,"Ġble":3174,"ative":3175,"ores":3176,"rab":3177,"Ġhandle":3178,"Ġspace":3179,"Ġcurrent":3180,"Ġhusband":3181,"Pot":3182,"Ġmood":3183,"Ġnon":3184,"ĠLy":3185,"Ġspecial":3186,"Ġhelping":3187,"Ġitself":3188,"Ġchoice":3189,"ending":3190,"avender":3191,"Ġdesper":3192,"Ġunf":3193,"Ġmostly":3194,"Ġcorrect":3195,"Ġwip":3196,"ĠTra":3197,"ĠTonks":3198,"Ġalive":3199,"ĠGo":3200,"oyle":3201,"Ġsnorted":3202,"ibility":3203,"ĠFlitwick":3204,"Ġembarrass":3205,"Ġhuffed":3206,"Ġahead":3207,"Ġwoke":3208,"Ġbeat":3209,"illow":3210,"Ġdespite":3211,"Ġentirely":3212,"zk":3213,"Ġasks":3214,"aban":3215,"ĠHogsmeade":3216,"Ġtaught":3217,"Ġsens":3218,"Ġbottom":3219,"Ġthick":3220,"Ġpriv":3221,"omm":3222,"ists":3223,"Ġeffect":3224,"Fred":3225,"Rachel":3226,"zing":3227,"Ġtoward":3228,"Ġhearing":3229,"iles":3230,"Ġrelax":3231,"zkaban":3232,"Because":3233,"Ġwel":3234,"Ġspr":3235,"land":3236,"Ġbre":3237,"Ġdue":3238,"Ġpleased":3239,"claimed":3240,"Ġchec":3241,"ĠUn":3242,"Ġwid":3243,"Ġwished":3244,"Ġdressed":3245,"ĠOh":3246,"ief":3247,"âĢ¦\"\"":3248,"Ġtext":3249,"Ġfinish":3250,"Ġdeterm":3251,"OT":3252,"ĠPlease":3253,"Ġalthough":3254,"Ġwalls":3255,"Ġpow":3256,"Ġsky":3257,"Ġcompartment":3258,"Ġneither":3259,"ager":3260,"Ġdep":3261,"Ġcrossed":3262,"Ġreminded":3263,"ĠAzkaban":3264,"Ġill":3265,"Ġhardly":3266,"ship":3267,"Ġwing":3268,"ora":3269,"Ġeating":3270,"ger":3271,"Ġty":3272,"Ġcausing":3273,"ĠPl":3274,"Ġpost":3275,"Ġinnoc":3276,"Ġpet":3277,"aler":3278,"ĠDiagon":3279,"ĠBill":3280,"Ġspeaking":3281,"Ġteachers":3282,"Ġnumber":3283,"ails":3284,"ĠAny":3285,"ĠWho":3286,"Ġlesson":3287,"Ġcop":3288,"Ġegg":3289,"aming":3290,"Ġdare":3291,"Ġdecl":3292,"ilar":3293,"Ġgrowing":3294,"Ġcheer":3295,"itches":3296,"Ġobvious":3297,"Ġdance":3298,"usted":3299,"ĠPr":3300,"Ġawful":3301,"Ġswallowed":3302,"Ġslipped":3303,"Ġattempt":3304,"ett":3305,"Ġwilling":3306,"ĠProphet":3307,"hart":3308,"Ġfaces":3309,"Ġmentioned":3310,"Ġconcerned":3311,"iot":3312,"Ġbrief":3313,"Ġcarry":3314,"irty":3315,"Ġworst":3316,"aped":3317,"Hell":3318,"val":3319,"Ġallow":3320,"abin":3321,"Ġwizarding":3322,"erva":3323,"Ġabsolutely":3324,"liver":3325,"Ġperfectly":3326,"Ġcharac":3327,"?!\"":3328,"ĠSaid":3329,"ĠYour":3330,"ockhart":3331,"Ġoppos":3332,"Ġpicture":3333,"Ġamazing":3334,"Ġ:":3335,"Ġbrew":3336,"Ġthin":3337,"Ġpage":3338,"kie":3339,"Ġaside":3340,"Ġgobl":3341,"Ġhund":3342,"Ġkids":3343,"amm":3344,"ables":3345,"Ġbedroom":3346,"Ġsupport":3347,"Potter":3348,"Ġhundred":3349,"Ġforce":3350,"Ġbuild":3351,"Lucy":3352,").":3353,"ially":3354,"eda":3355,"Ġcause":3356,"Ġlap":3357,"Ġheads":3358,"Ġunderstood":3359,"romeda":3360,"Ġfrustr":3361,"Have":3362,"wig":3363,"Ġtongue":3364,"Ġhiding":3365,"Ġbow":3366,"ĠLet":3367,"ules":3368,"ĠNe":3369,"Ġslee":3370,"Ġeasier":3371,"oul":3372,"ĠMarlene":3373,"Ġaunt":3374,"Ġhugged":3375,"Ġlie":3376,"pell":3377,"arth":3378,"Ġlifted":3379,"Hello":3380,"uce":3381,"Ġstare":3382,"Once":3383,"rum":3384,"ucking":3385,"uing":3386,"Ġwake":3387,"Ġcaused":3388,"Ġstair":3389,"Ġcomes":3390,"Ġcleared":3391,"ex":3392,"Ġmass":3393,"otts":3394,"Ġcontact":3395,"rabbe":3396,"aj":3397,"edwig":3398,"atri":3399,"ĠLisa":3400,"Ġamong":3401,"sobel":3402,"ĠEveryone":3403,"ĠTw":3404,"Ġmissing":3405,"Per":3406,"Ġmine":3407,"oof":3408,"Ġexclaimed":3409,"Ġrealised":3410,"Ġforest":3411,"Ġsuggest":3412,"ges":3413,"Ġprefect":3414,"Ġprevious":3415,"ilda":3416,"Any":3417,"reme":3418,"ises":3419,"ashing":3420,"Ġintrod":3421,"Ġcannot":3422,"Ġamount":3423,"atrix":3424,"friend":3425,"Ġstret":3426,"ption":3427,"Ġneeds":3428,"Ġwrote":3429,"ology":3430,"orcas":3431,"Ġridicul":3432,"mare":3433,"amber":3434,"Ġkissed":3435,"Ġscreamed":3436,"'.":3437,"Ġcas":3438,"Ġlim":3439,"ics":3440,"ĠDa":3441,"ĠLockhart":3442,"Ġapparently":3443,"ancy":3444,"Ġportra":3445,"Ġbene":3446,"Ġlock":3447,"ified":3448,"Ġslight":3449,"Ġsnow":3450,"Ġinterested":3451,"AT":3452,"Ġment":3453,"Ġmuggles":3454,"ĠMat":3455,"Ġspread":3456,"Ġgrad":3457,"Ġparticularly":3458,"io":3459,"Ġbegin":3460,"Ġfighting":3461,"Ġlose":3462,"Ġpushing":3463,"umped":3464,"ĠDean":3465,"Ġtraining":3466,"ĠDefense":3467,"Ġhar":3468,"esides":3469,"ĠPar":3470,"Ġknees":3471,"Ġfinal":3472,"ĠWhile":3473,"ĠTrans":3474,"Ġidiot":3475,"cri":3476,"Ġconne":3477,"âĢĶ\"":3478,"Ġgrey":3479,"Ġgreeted":3480,"res":3481,"illy":3482,"Ġdism":3483,"ĠArthur":3484,"Ġdestro":3485,"ler":3486,"Ġnecess":3487,"Ġglancing":3488,"Ġtask":3489,"Ġfif":3490,"asing":3491,"Ġchoo":3492,"ĠGoyle":3493,"Ġknowledge":3494,"ĠInstead":3495,"Ġlistening":3496,"Ġsmirk":3497,"Ġfocused":3498,"Ġgolden":3499,"foot":3500,"Ġhouses":3501,"ĠLike":3502,"Ġconcern":3503,"Ġlocked":3504,"ĠGale":3505,"ĠFil":3506,"Ġrepeated":3507,"par":3508,"irm":3509,"Ġknocked":3510,"aker":3511,"Ġfloo":3512,"Ġstreet":3513,"well":3514,"Ġmid":3515,"Ġmap":3516,"Ġstrugg":3517,"Ġshoes":3518,"Ġannoyed":3519,"ĠAurora":3520,"One":3521,"Ġdeli":3522,"Ġopposite":3523,"cious":3524,"hip":3525,"sing":3526,"anor":3527,"rying":3528,"Ġnightmare":3529,"Ġsuggested":3530,"Chapter":3531,"Ġwerewolf":3532,"ĠIsobel":3533,"Ġanx":3534,"Ġrespect":3535,"Ġcareful":3536,"Ġconsider":3537,"case":3538,"ĠAgain":3539,"Ġseven":3540,"Ġconst":3541,"rence":3542,"Ġresponded":3543,"Ġpoor":3544,"Ġcrack":3545,"Ġbrain":3546,"Ġhonestly":3547,"rass":3548,"Ġheir":3549,"using":3550,"Ġnodding":3551,"Ġyours":3552,"Look":3553,"ĠSee":3554,"Ġiss":3555,"Ġgrate":3556,"Vic":3557,"Ġlanded":3558,"unately":3559,"Ġnoise":3560,"Ġcond":3561,"ĠYOU":3562,"Ġcover":3563,"ker":3564,"Ġfool":3565,"Ġways":3566,"Ġgrowled":3567,"ature":3568,"Ġpop":3569,"Ġoffer":3570,"Ġheadm":3571,"Ġspec":3572,"Ġstaying":3573,"Ġignoring":3574,"Ġholidays":3575,"mates":3576,"Ġavoid":3577,"relaw":3578,"Ġrelationship":3579,"!'":3580,"Ġwave":3581,"Ġscoff":3582,"Ġaccident":3583,"Ġtree":3584,"Ġdun":3585,"Ġrese":3586,"ĠArts":3587,"ĠLe":3588,"Ġsmart":3589,"Ġhuman":3590,"gn":3591,"Ġremained":3592,"Ġfinding":3593,"relawney":3594,"ients":3595,"kin":3596,"Ġtakes":3597,"ries":3598,"Ġgrown":3599,"airi":3600,"Ġscrat":3601,"?'":3602,"Ġborn":3603,"lebr":3604,"Ġstun":3605,"Ġreach":3606,"ĠMost":3607,"cho":3608,"ĠRe":3609,"Ġentrance":3610,"Ġfeelings":3611,"Daphne":3612,"Ġnobody":3613,"ĠEv":3614,"Ġacce":3615,"Ġcolor":3616,"Ġmurmured":3617,"Some":3618,"Ġhanging":3619,"Ġbrilliant":3620,"Ġgh":3621,"amb":3622,"Ġshi":3623,"Ġshowing":3624,"ĠLavender":3625,"Ġglaring":3626,"ĠOliver":3627,"By":3628,"Ġ5":3629,"Ġve":3630,"Ġorig":3631,"Ġaccept":3632,"Ġdrop":3633,"Ġterrible":3634,"Ġphot":3635,"Ġduel":3636,"rily":3637,"Ġgoes":3638,"Ġgrumbled":3639,"Ġunable":3640,"Ġprank":3641,"Ġinsisted":3642,"engrass":3643,"Ġtoss":3644,"Ġmed":3645,"Ġgent":3646,"Ġshared":3647,"Ġchin":3648,"aste":3649,"Ġclut":3650,"icks":3651,"Ġhappily":3652,"Ġgrab":3653,"Ġopening":3654,"Ġexcit":3655,"Fine":3656,"Ġhex":3657,"Ġmotion":3658,"omp":3659,"Ġvar":3660,"Ġing":3661,"rets":3662,"Ġcand":3663,"ĠCan":3664,"aky":3665,"Ġvision":3666,"ĠMagical":3667,"Della":3668,"book":3669,"Ġwitches":3670,"itted":3671,"lliv":3672,"ĠAnt":3673,"ementors":3674,"ĠTransfiguration":3675,"Ġner":3676,"Ġhers":3677,"ĠCrabbe":3678,"Ġsomewhat":3679,"Ġsilently":3680,"Ġcolour":3681,"Or":3682,"Ġequ":3683,"ĠPh":3684,"Ġsuff":3685,"Ġrealize":3686,"Ġtent":3687,"Ġperm":3688,"ĠSec":3689,"Ġsevent":3690,"Ġelb":3691,"Ġapart":3692,"Ġcelebr":3693,"ĠCharms":3694,"ottle":3695,"ĠAre":3696,"ils":3697,"Ġpossibly":3698,"ert":3699,"enly":3700,"Ġpath":3701,"ĠSp":3702,"Ġpubl":3703,"ury":3704,"riage":3705,"ĠEater":3706,"Ġstudying":3707,"Ġfirmly":3708,"ĠGreengrass":3709,"Ġridiculous":3710,"See":3711,"ayed":3712,"ĠBy":3713,"ĠArkie":3714,"Ġward":3715,"urors":3716,"ancing":3717,"cient":3718,"lessly":3719,"Ġceiling":3720,"Ġeffort":3721,"asted":3722,"ĠHedwig":3723,"Ġnor":3724,"Ġshall":3725,"Ġgrim":3726,"Ġfeels":3727,"Ġconfusion":3728,"Ġplanning":3729,"Ġexcitement":3730,"apping":3731,"Ġund":3732,"kend":3733,"Ġheading":3734,"Ġpersonal":3735,"/\\/\\/\\/\\":3736,"ault":3737,"Ġfaint":3738,"Ġcauldron":3739,"Ġstern":3740,"ĠAndromeda":3741,"Ġbelieved":3742,"Ġobject":3743,"Ġdistance":3744,"Ġgiggled":3745,"Ġdiary":3746,"Really":3747,"Ġsending":3748,"Ġforgotten":3749,"Ġgentle":3750,"ring":3751,"ĠTerry":3752,"Ġsuper":3753,"Ġcomfortable":3754,"llivander":3755,"isf":3756,"Ġhist":3757,"rian":3758,"Ġboard":3759,"Ġunderstanding":3760,"Ġdecision":3761,"RE":3762,"light":3763,"Ġbottle":3764,"arily":3765,"Ġden":3766,"Ġgift":3767,"Ġstorm":3768,"ceed":3769,"Ġvo":3770,"Ġcollect":3771,"Sure":3772,"Ġwild":3773,"ĠDorcas":3774,"earing":3775,"Ġapproached":3776,"ĠBellatrix":3777,"wood":3778,"Ġrules":3779,"Ġprocess":3780,"Ġweekend":3781,"Ġsleeping":3782,"aling":3783,"key":3784,"Ġthinks":3785,"ĠWeasleys":3786,"Ġhorrible":3787,"Ġproperly":3788,"Ġuncomfortable":3789,"ĠTravis":3790,"yond":3791,"Ġbeyond":3792,"Ġweight":3793,"Ġuncle":3794,"Ġbreaking":3795,"),":3796,"Ġpitch":3797,"Ġtrip":3798,"Very":3799,"cell":3800,"Ġchamp":3801,"Ġwarning":3802,"Ġbuy":3803,"Ġexperience":3804,"Ġnarrowed":3805,"Ġclaim":3806,"Ġvan":3807,"Ġgrabbing":3808,"Ġscreaming":3809,"Ġgodfather":3810,"Ġdestroy":3811,"Ġice":3812,"acher":3813,"icated":3814,"ĠTrelawney":3815,"Ġrisk":3816,"ĠNott":3817,"istory":3818,"Ġhallway":3819,"Ġsharply":3820,"Ġghost":3821,"ule":3822,"Ġbigg":3823,"Ġamused":3824,"Ġcurtain":3825,"Ġawake":3826,"Ġextreme":3827,"Ġfailed":3828,"Ġwonderful":3829,"OO":3830,"Ġdry":3831,"Ġshad":3832,"Ġshare":3833,"Ġemer":3834,"Ġbreathing":3835,"Ġconsidering":3836,"Ġenjoyed":3837,"Ab":3838,"usting":3839,"Ġdisco":3840,"Ġdragged":3841,"Ġshifted":3842,"Ġfully":3843,"orting":3844,"umbling":3845,"Ġregret":3846,"Ġtransform":3847,"zen":3848,"Ġbite":3849,"Ġmate":3850,"ĠHope":3851,"adfoot":3852,"Ġlevel":3853,"anced":3854,"Ġopport":3855,"Ġheadmaster":3856,"Um":3857,"Ġpush":3858,"Ġharder":3859,"rupt":3860,"asion":3861,"Ġgir":3862,"Ġeng":3863,"hony":3864,"Ġ...":3865,"Ġrushed":3866,"Ġwhenever":3867,"ĠMinerva":3868,"Ġthrowing":3869,"arted":3870,"utter":3871,"uced":3872,"Ġlessons":3873,"Ġhidden":3874,"ĠFaw":3875,"Ġplat":3876,"Ġrolling":3877,"ĠOrder":3878,"Ġexpecting":3879,"Ġburning":3880,"Ġflin":3881,"Ġexcuse":3882,"Ġregard":3883,"AN":3884,"Ġbell":3885,"ots":3886,"ĠBrit":3887,"Ġoffic":3888,"ĠKent":3889,"Ġsimilar":3890,"Ġlearning":3891,"Ġignore":3892,"Ġreaction":3893,"Malfoy":3894,"pose":3895,"Ġstories":3896,"ĠOllivander":3897,"Ġrubbed":3898,"els":3899,"Ġtwenty":3900,"ĠAlice":3901,"Ġfavour":3902,"Go":3903,"Ġsorted":3904,"atie":3905,"ĠHistory":3906,"ĠMairi":3907,"Ġknock":3908,"Ġjaw":3909,"Ġrefused":3910,"Ġsqueezed":3911,"Ġwelcome":3912,"lfriend":3913,"Ġanywhere":3914,"Ġrose":3915,"Ġindeed":3916,"ĠSnips":3917,"ĠDaily":3918,"ĠFilch":3919,"Ġshield":3920,"Ġappar":3921,"Ġtower":3922,"Ġingred":3923,"Ġdrew":3924,"Ġlack":3925,"Ġskill":3926,"Ġtouched":3927,"Ġgestured":3928,"inal":3929,"onna":3930,"iment":3931,"Ġmerely":3932,"Ġblur":3933,"Ġrooms":3934,"ĠGring":3935,"Ġlucky":3936,"ĠMatilda":3937,"eh":3938,"Ġreass":3939,"terday":3940,"Ġshrie":3941,"Ġgrip":3942,"Ġharm":3943,"Ġtot":3944,"pper":3945,"racted":3946,"rewett":3947,"Ġcomplain":3948,"Ġlake":3949,"Ġgard":3950,"Ġecho":3951,"ĠAng":3952,"ague":3953,"ument":3954,"Ġpeace":3955,"Ġpresence":3956,"Ġvi":3957,"Here":3958,"Ġopin":3959,"Ġperform":3960,"Ġlovely":3961,"Ġplayed":3962,"Ġpunish":3963,"Ġtiny":3964,"itting":3965,"Ġlived":3966,"ruct":3967,"ses":3968,"elia":3969,"Ġsmo":3970,"Ġeyed":3971,"Ġcuriously":3972,"Ġdormit":3973,"Ġawkwardly":3974,"Ġassumed":3975,"Me":3976,"atic":3977,"Ġeager":3978,"ĠPo":3979,"rouch":3980,"ĠWor":3981,"Ġotherwise":3982,"Ġflick":3983,"Ġscene":3984,"Ġslid":3985,"Ġpowerful":3986,"de":3987,"Ġinj":3988,"step":3989,"Ġprefer":3990,"Ġcalling":3991,"iety":3992,"ĠPerhaps":3993,"Before":3994,"Ġconvin":3995,"Everyone":3996,"Ġwidened":3997,"Ġgirlfriend":3998,"Uncle":3999,"year":4000,"zz":4001,"Ġteaching":4002,"LL":4003,"omed":4004,"ĠFrom":4005,"Ġflames":4006,"Er":4007,"ffee":4008,"Ġwindows":4009,"Ġprepared":4010,"ĠGringotts":4011,"Ġ4":4012,"Ġsal":4013,"Ġmark":4014,"Ġforth":4015,"Ġlives":4016,"Ġsatisf":4017,"Ġangrily":4018,"Ġbrave":4019,"Ġcharms":4020,"Ġdrawing":4021,"uddenly":4022,"Ġdetermined":4023,"Ġwit":4024,"Ġblame":4025,"olt":4026,"ensive":4027,"Ġstaircase":4028,"Wait":4029,"ads":4030,"Ġfamil":4031,"Ġterrified":4032,"Ġseriously":4033,"Ġkicked":4034,"Nothing":4035,"Like":4036,"Uh":4037,"bology":4038,"oved":4039,"arch":4040,"Ġeight":4041,"Ġjer":4042,"astic":4043,"Ġcompet":4044,"time":4045,"Ġnatur":4046,"Ġstiff":4047,"ĠTournament":4048,"ĠCol":4049,"ĠWould":4050,"Ġemotion":4051,"Ġdrag":4052,"Ġreceived":4053,"Ġinvolved":4054,"Ġhistory":4055,"iqu":4056,"Ġfreak":4057,"Ġsurv":4058,"inson":4059,"Ġgrateful":4060,"ien":4061,"Ġshake":4062,"ĠApp":4063,"pend":4064,"cks":4065,"Ġfrowning":4066,"Ġessay":4067,"son":4068,"inct":4069,"Ġstick":4070,"Ġhappens":4071,"Ġdirectly":4072,"ON":4073,"reacher":4074,"Ġpen":4075,"ĠBoth":4076,"Ġimm":4077,"ĠThough":4078,"Ġspotted":4079,"bye":4080,"Blaise":4081,"Ġ:)":4082,"Ġopportunity":4083,"my":4084,"Ġpillow":4085,"Ġgonna":4086,"Ġsepar":4087,"Ġblushed":4088,"Ġsniff":4089,"ĠBefore":4090,"Ġpanic":4091,"Ġdismiss":4092,"Ġgrounds":4093,"Ġscoffed":4094,"that":4095,"Ġrac":4096,"Ġsand":4097,"ĠManor":4098,"ppy":4099,"Ġsuit":4100,"Ġdownstairs":4101,"osing":4102,"Ġassign":4103,"Yrrah":4104,"fa":4105,"Ġtwice":4106,"Ġprod":4107,"Ġmanage":4108,"Ġchecked":4109,"Ġtables":4110,"Ġwolf":4111,"Ġlightly":4112,"Ġfourth":4113,"Ġyesterday":4114,"Ġcreatures":4115,"Ġblanket":4116,"isting":4117,"Ġspoken":4118,"Ġdescri":4119,"Ġenter":4120,"Ġannounced":4121,"Ġsneered":4122,"aturday":4123,"Ġreaching":4124,"Ġupd":4125,"ĠBur":4126,"Ġquar":4127,"Ġsounding":4128,"Ġrubbing":4129,"Ġrefle":4130,"Ġpieces":4131,"Ġcreature":4132,"Ġdisappointed":4133,"Ġfamilies":4134,"Ġrele":4135,"ĠPe":4136,"ĠBecause":4137,"Ġbitter":4138,"Ġinstantly":4139,"Ġcompany":4140,"Ġforever":4141,"EN":4142,"mp":4143,"otions":4144,"Ġsetting":4145,"Ġrough":4146,"Ġupstairs":4147,"ĠEd":4148,"Ġevents":4149,"ĠTri":4150,"Ġmembers":4151,"ivination":4152,"Ġshoved":4153,"ĠMill":4154,"ĠBrian":4155,"ondon":4156,"Ġoccasion":4157,"Miss":4158,"Ġtil":4159,"Ġplans":4160,"Ġdoorway":4161,"Ġhasn":4162,"Ġimposs":4163,"Ġpublic":4164,"bing":4165,"Ġattacked":4166,"fortunately":4167,"Ġrelieved":4168,"ĠRoom":4169,"Ġnecessary":4170,"ĠAnthony":4171,"gr":4172,"ruc":4173,"Ġmud":4174,"Ġbeamed":4175,"lder":4176,"ĠEng":4177,"Ġwrist":4178,"Ġheavily":4179,"Ġeleven":4180,"Ġportrait":4181,"AD":4182,"ech":4183,"pting":4184,"ster":4185,"Ġfail":4186,"ĠMaster":4187,"Ġclen":4188,"Ġscra":4189,"Ġpractically":4190,"Ġbird":4191,"alle":4192,"ĠHealer":4193,"ĠWhere":4194,"Ġguy":4195,"Ġelves":4196,"Ġpassing":4197,"appy":4198,"Ġlistened":4199,"Ġdropping":4200,"ĠMadame":4201,"Ġparticular":4202,"Ġingredients":4203,"Peter":4204,"aves":4205,"Ġpour":4206,"emy":4207,"Ġmanner":4208,"hys":4209,"Ġjoke":4210,"Ġsque":4211,"Ġguilty":4212,"Ġlat":4213,"Ġfeather":4214,"ĠCrouch":4215,"ĠFirst":4216,"Ġinnocent":4217,"Ġviol":4218,"Author":4219,"eep":4220,"hh":4221,"itched":4222,"entr":4223,"ĠPark":4224,"thy":4225,"Ġbrothers":4226,"Ġrespons":4227,"Ġfolded":4228,"Ġink":4229,"ĠSomething":4230,"Ġshy":4231,"unted":4232,"ĠLondon":4233,"elve":4234,"Ġ19":4235,"ĠCass":4236,"Ġvial":4237,"Ġslam":4238,"ĠPete":4239,"Ġcoffee":4240,"Ġassured":4241,"egis":4242,"Ġpresents":4243,"Ġinformed":4244,"cellent":4245,"bur":4246,"Ġtens":4247,"Ġarea":4248,"Ġfallen":4249,"ĠZach":4250,"ding":4251,"ĠPadfoot":4252,"ĠBag":4253,"Ġreturning":4254,"Ġleading":4255,"Ġgoblin":4256,"LE":4257,"inc":4258,"Ġwards":4259,"ĠSaturday":4260,"ragon":4261,"Ġarr":4262,"Ġappreciate":4263,"ĠAgainst":4264,"Ġextremely":4265,"Would":4266,"Ġfright":4267,"Ġearth":4268,"ented":4269,"rop":4270,"ĠPrewett":4271,"Ġclub":4272,"osen":4273,"Ġgiant":4274,"Ġdarkness":4275,"Ġlaid":4276,"Ġinvis":4277,"Ġfan":4278,"ĠDel":4279,"eless":4280,"Ġcurled":4281,"ĠOnly":4282,"Ġpurpose":4283,"ĠAmelia":4284,"Ġgarden":4285,"ĠWorld":4286,"bat":4287,"iving":4288,"Ġphys":4289,"Ġsaved":4290,"rage":4291,"ume":4292,"eling":4293,"ĠFr":4294,"Ġench":4295,"Ġmusic":4296,"Ġopinion":4297,"attered":4298,"ĠMuggles":4299,"ĠWood":4300,"Ġchall":4301,"ĠBoy":4302,"Ġcrazy":4303,"Ġexchanged":4304,"Ġcurrently":4305,"Ġcopy":4306,"Un":4307,"for":4308,"Ġz":4309,"Ġident":4310,"Ġfought":4311,"ĠBones":4312,"Ġrude":4313,"Ġwhose":4314,"ational":4315,"Ġener":4316,"Ġanswers":4317,"Ġsweat":4318,"Ġsuccess":4319,"ga":4320,"ik":4321,"Ġsour":4322,"Ġboring":4323,"ĠAurors":4324,"Ġclock":4325,"ongs":4326,"innet":4327,"Ġboyfriend":4328,"Ġchapters":4329,"Ġtremb":4330,"OR":4331,"af":4332,"Ġbecoming":4333,"Ġbetr":4334,"Ġagreement":4335,"Ġdelight":4336,"lies":4337,"ading":4338,"ĠRun":4339,"ĠTheir":4340,"Ġsofa":4341,"velop":4342,"Ġconcentr":4343,"atives":4344,"Ġaccepted":4345,"gan":4346,"Ġi":4347,"Ġtit":4348,"Ġpalm":4349,"Ġate":4350,"Theo":4351,"Ġrain":4352,"Ġexplan":4353,"Ġescape":4354,"âĢĶâĢĶâĢĶâĢĶ":4355,"Ġcard":4356,"Ġfeast":4357,"Ġdeb":4358,"Ġenjoying":4359,"Ġreport":4360,"Ġbelow":4361,"ĠClub":4362,"Ġtar":4363,"Ġbought":4364,"Ġpound":4365,"Ġstate":4366,"ĠSure":4367,"Ġalarm":4368,"Ġrum":4369,"Ġadop":4370,"Ġexplod":4371,"Ġreco":4372,"Ġirrit":4373,"Ġordered":4374,"ĠEvans":4375,"hood":4376,"sp":4377,"Ġloc":4378,"Ġtwisted":4379,"Ġgras":4380,"Ġguest":4381,"Ġsnar":4382,"ĠWhich":4383,"Ġpureblood":4384,"ccl":4385,"uice":4386,"Ġought":4387,"Ġpaid":4388,"ĠHad":4389,"urse":4390,"unched":4391,"Ġdev":4392,"Ġflushed":4393,"Ġprophe":4394,"Ġdecide":4395,"ĠKrum":4396,"Ġchoose":4397,"ĠTower":4398,"ĠWiz":4399,"asty":4400,"ĠCho":4401,"ĠYes":4402,"ĠKatie":4403,"ottie":4404,"Ġimpossible":4405,"Gr":4406,"gar":4407,"Ġben":4408,"Ġbound":4409,"iform":4410,"Ġgrass":4411,"Ġbreathed":4412,"Ġplanned":4413,"Ġhesitated":4414,"Ġvarious":4415,"Get":4416,"ios":4417,"Ġbored":4418,"uttered":4419,"oyal":4420,"Ġaffect":4421,"Ġdeclared":4422,"AR":4423,"ium":4424,"Ġsoul":4425,"Ġlab":4426,"Ġstore":4427,"rog":4428,"amot":4429,"Ġchose":4430,"elina":4431,"Ġvault":4432,"Ġwaving":4433,"ĠHerbology":4434,"Ġmarried":4435,"engamot":4436,"Ġver":4437,"asc":4438,"acy":4439,"Ġshudd":4440,"illing":4441,"ugust":4442,"Ġevil":4443,"Ġdeeply":4444,"9999":4445,"Ġtucked":4446,"Ġcust":4447,"Ġadj":4448,"Ġemotions":4449,"Ġseats":4450,"Ġyellow":4451,"Ġapologize":4452,"Ġdunge":4453,"steps":4454,"Even":4455,"do":4456,"Ġserv":4457,"eding":4458,"Ġbent":4459,"ĠCome":4460,"Ġworks":4461,"estly":4462,"Ġposit":4463,"austed":4464,"riday":4465,"rux":4466,"Ġnearby":4467,"Ġpurple":4468,"sy":4469,"Ġsilly":4470,"Ġban":4471,"Ġfaster":4472,"ats":4473,"Ġcake":4474,"Ġreck":4475,"ify":4476,"Ġclosing":4477,"Ġministry":4478,"ĠSophie":4479,"Ġpictures":4480,"Ġunsure":4481,"Ġgathered":4482,"Ġvoices":4483,"cclum":4484,"lo":4485,"yle":4486,"Ġcream":4487,"Ġlines":4488,"Ġnamed":4489,"Ġkey":4490,"ĠWizarding":4491,"Ġwore":4492,"asy":4493,"ĠCup":4494,"eline":4495,"ĠNor":4496,"ĠFinally":4497,"Ġorph":4498,"Ġprov":4499,"Ġpred":4500,"ĠWizengamot":4501,"tail":4502,"Ġtear":4503,"oween":4504,"ety":4505,"Ġchosen":4506,"Ġturns":4507,"Ġfriendship":4508,"Ġfurious":4509,"Ġsleeve":4510,"Ġdormitory":4511,"bidden":4512,"ipp":4513,"wizard":4514,"atively":4515,"ĠEr":4516,"Ġresting":4517,"Ġimpressed":4518,"Ġsuspicious":4519,"Ġexhausted":4520,"Ġbuilding":4521,"Ġfacing":4522,"ession":4523,"Ġdefe":4524,"Ġprove":4525,"Ġbehav":4526,"Ġbringing":4527,"Ġfixed":4528,"Ġbeneath":4529,"Ġcurtains":4530,"Auror":4531,"back":4532,"Ġhang":4533,"irmed":4534,"Ġstaff":4535,"une":4536,"Ġteen":4537,"Ġargument":4538,"Dis":4539,"Ġtapped":4540,"Ġwound":4541,"Ġhig":4542,"enix":4543,"agg":4544,"Ġuniform":4545,"Ġprevent":4546,"Ġtrack":4547,"hoenix":4548,"Ġdetails":4549,"Ġdelic":4550,"Ġcomplained":4551,"Ġfroze":4552,"she":4553,"Ġaim":4554,"ĠDep":4555,"Ġteased":4556,"Ġacting":4557,"Ġdecor":4558,"Ġideas":4559,"Ġdistracted":4560,"while":4561,"Ġwitness":4562,"Ġcaut":4563,"Ġpile":4564,"ĠTrac":4565,"ĠDementors":4566,"ĠRow":4567,"Ġspun":4568,"awn":4569,"Ġfootsteps":4570,"Ġcarrying":4571,"Know":4572,"iced":4573,"Ġartic":4574,"Does":4575,"itor":4576,"Ġsoot":4577,"elle":4578,"phi":4579,"Ġmiser":4580,"Ġvers":4581,"isc":4582,"Ġpicking":4583,"Ġje":4584,"Ġchanging":4585,"Ġtwelve":4586,"aired":4587,"blet":4588,"Ġswear":4589,"Ġtopic":4590,"Ġrecognized":4591,"viously":4592,"vati":4593,"espite":4594,"Ġstumbled":4595,"Ġsaf":4596,"ĠDivination":4597,"Ġloose":4598,"ĠComm":4599,"ĠBesides":4600,"Ġring":4601,"Ġplaces":4602,"Ġsched":4603,"Ġtrick":4604,"ĠAndy":4605,"Ġdram":4606,"Ġtrial":4607,"Ġbrooms":4608,"Ġhorror":4609,"Ġargue":4610,"Ġwooden":4611,"Ġhungry":4612,"Hagrid":4613,"Ġdumb":4614,"Ġgle":4615,"Ġstri":4616,"alled":4617,"rior":4618,"Ġshower":4619,"racked":4620,"Ġcloud":4621,"aux":4622,"Ġrelatives":4623,"Ġstreng":4624,"Ġassume":4625,"Ġconvince":4626,"ĠBagman":4627,"Ġsink":4628,"Ġaband":4629,"Ġinstruct":4630,"Ġdistract":4631,"Ġproblems":4632,"Ġannoying":4633,"Ġtaste":4634,"Ġwed":4635,"Ġlady":4636,"Ġyeh":4637,"Ġum":4638,"ĠMung":4639,"action":4640,"Ġfresh":4641,"Ġmental":4642,"uine":4643,"ution":4644,"ĠNOT":4645,"ĠKreacher":4646,"Ġstopping":4647,"Ġurge":4648,"ems":4649,"Ġnoted":4650,"Ġflow":4651,"Ġunless":4652,"Ġliter":4653,"Ġswung":4654,"Ġuseful":4655,"Ġtrio":4656,"Ġmistake":4657,"Ġdeserve":4658,"eptember":4659,"ĠGodric":4660,"Ġnerves":4661,"Ġplatform":4662,"Ġconvinced":4663,"Aurora":4664,"Ar":4665,"Hi":4666,"Ġmarry":4667,"Ġflicked":4668,"Ġspid":4669,"Ġgoodbye":4670,"ronus":4671,"imp":4672,"Ġride":4673,"Ġval":4674,"Ġraising":4675,"prout":4676,"Ġwiped":4677,"Ġsmooth":4678,"Ġexplanation":4679,"Ġwishing":4680,"Ġfist":4681,"Ġmag":4682,"vey":4683,"ĠCat":4684,"ĠLove":4685,"Ġvict":4686,"Ġdisbel":4687,"Ġenth":4688,"Ġimpro":4689,"Ġinvest":4690,"Ġincident":4691,"Ġtreated":4692,"ĠFawley":4693,"ma":4694,"icing":4695,"Ġship":4696,"Ġglow":4697,"Ġcursed":4698,"Ġwomen":4699,"Ġkissing":4700,"Ġreviews":4701,"Ġtort":4702,"cclumency":4703,"ground":4704,"rtle":4705,"Ġdread":4706,"ĠHave":4707,"ooch":4708,"rib":4709,"ands":4710,"Ġsmoke":4711,"Ġaction":4712,"ĠStill":4713,"Ġgeneral":4714,"Ġenergy":4715,"Ne":4716,"Ġtend":4717,"Ġtense":4718,"Ġwet":4719,"chie":4720,"ealous":4721,"Ġdesperately":4722,"Ġfifth":4723,"va":4724,"Ġdust":4725,"Ġpump":4726,"ette":4727,"ĠDigg":4728,"Ġbutter":4729,"Ġjud":4730,"ĠFriday":4731,"Ġtwin":4732,"Ġslip":4733,"Ġpassage":4734,"Ġcatching":4735,"Ġcarried":4736,"Ġformer":4737,"Ġmuggleborn":4738,"Ġspending":4739,"ING":4740,"Ġthrown":4741,"George":4742,"Ġsize":4743,"itude":4744,"asure":4745,"anting":4746,"Ġstartled":4747,"Ġrecord":4748,"Ġmurder":4749,"Ġexcitedly":4750,"Ġprivate":4751,"Ġcabin":4752,"Ġpurs":4753,"usement":4754,"Ġstro":4755,"istress":4756,"Ġsurely":4757,"Ġprofessors":4758,"Ġlowered":4759,"Ġcommented":4760,"Ġsurrounded":4761,"ĠSpinnet":4762,",'":4763,"line":4764,"mother":4765,"uh":4766,"Ġsides":4767,"Ġloyal":4768,"Ġmeal":4769,"ĠNick":4770,"Ġplenty":4771,"Ġthroughout":4772,"cles":4773,"Ġpotent":4774,"Ġstands":4775,"Ġstepping":4776,"ĠParkinson":4777,"onestly":4778,"Ġfal":4779,"idly":4780,"Ġstir":4781,"rap":4782,"Ġvague":4783,"Ġmessage":4784,"Ġsneak":4785,"Ġincredibly":4786,"gress":4787,"Ġtoast":4788,"Ġflash":4789,"Ġspat":4790,"Ġeverywhere":4791,"Ġattend":4792,"Ġlights":4793,"Ġowls":4794,"Ġharsh":4795,"Ġoriginal":4796,"TH":4797,"ris":4798,"Ġsip":4799,"Ġleng":4800,"Ġpin":4801,"usi":4802,"Ġstation":4803,"ĠFire":4804,"Ġart":4805,"Ġcontem":4806,"Ġmovement":4807,"Ġimagined":4808,"Ġencou":4809,"?!":4810,"of":4811,"Ġgul":4812,"aying":4813,"adora":4814,"rive":4815,"ometimes":4816,"Ġprec":4817,"Ġens":4818,"Ġbrow":4819,"Ġmov":4820,"Only":4821,"Ġscowled":4822,"rem":4823,"Ġfake":4824,"Ġducked":4825,"alk":4826,"ĠGood":4827,"Ġwarned":4828,"Ġbattle":4829,"ĠTwo":4830,"ob":4831,"Ġwis":4832,"atically":4833,"Ġlad":4834,"Ġleap":4835,"Ġspeech":4836,"Ġactions":4837,"Ġrecently":4838,"Ġshrug":4839,"Ġcupboard":4840,"Ġgenuine":4841,"Ġbothered":4842,"Ġcharacters":4843,"isingly":4844,"ĠSprout":4845,"amus":4846,"rier":4847,"ĠAlso":4848,"Ġbreathe":4849,"ĠHalloween":4850,"Ġsplit":4851,"',":4852,"Aunt":4853,"ean":4854,"under":4855,"wr":4856,"inger":4857,"ĠSince":4858,"Ġshown":4859,"Ġmanor":4860,"Ġsecrets":4861,"Ġmeaning":4862,"Ġpapers":4863,"Ġphone":4864,"claimer":4865,"Ġcreep":4866,"ĠTHE":4867,"Ġslammed":4868,"Ġfil":4869,"Ġdancing":4870,"Ġsmiles":4871,"Ġeverybody":4872,"ĠPotters":4873,"arcus":4874,"ĠNothing":4875,"arring":4876,"Ġissue":4877,"Ġstunned":4878,"Ġstrength":4879,"ĠDiggory":4880,"Was":4881,"Ġbal":4882,"Ġcost":4883,"ences":4884,"ĠHooch":4885,"ilisk":4886,"ĠLady":4887,"ĠLottie":4888,"Ġspeed":4889,"ĠAlthough":4890,"Ġimpress":4891,"Ġreluct":4892,"Ġpretend":4893,"Ġoccur":4894,"Ġrequest":4895,"Ġclimbed":4896,"Ġmassive":4897,"/\\/\\/\\/\\/\\":4898,"Ġwhom":4899,"Ġant":4900,"ĠAd":4901,"rand":4902,"inkled":4903,"olves":4904,"Ġimpati":4905,"Ġannoyance":4906,"Which":4907,"Ġtemper":4908,"Mad":4909,"Ġcoo":4910,"Ġlikes":4911,"Ġspir":4912,"Ġunlike":4913,"Ġpowers":4914,"ĠParvati":4915,"Ġresearch":4916,"Ġmult":4917,"ache":4918,"ĠSorting":4919,"Ġshoot":4920,"chn":4921,"ĠBr":4922,"Ġblind":4923,"Ġunw":4924,"intment":4925,"Ġaddress":4926,"ky":4927,"Ġtip":4928,"Ġcared":4929,"Ġmons":4930,"Ġdim":4931,"ĠSke":4932,"Ġsection":4933,"Ġjoy":4934,"Ġfeat":4935,"ĠWing":4936,"Ġvill":4937,"Ġglo":4938,"Ġpranks":4939,"Ġappl":4940,"Ġadults":4941,"Ġgesture":4942,"Ġseventh":4943,"ĠBritain":4944,"Ġfavourite":4945,"alleons":4946,"uch":4947,"Ġtheory":4948,"Ġfield":4949,"Ġchairs":4950,"Ġincluding":4951,"Ġstruggled":4952,"Ġtrembling":4953,"Ġtarget":4954,"ĠMungo":4955,"Ġdirty":4956,"ĠHospital":4957,"ĠPriv":4958,"cend":4959,"Ġexist":4960,"aper":4961,"Ġamusement":4962,"Ġimage":4963,"Ġcurls":4964,"Ġwinced":4965,"rode":4966,"ĠMillie":4967,"ĠRunes":4968,"Ġenthusi":4969,"Tw":4970,"word":4971,"Ġjealous":4972,"Ġscan":4973,"ission":4974,"Ġrealizing":4975,"Ġ10":4976,"Ġlouder":4977,"Ġsentence":4978,"Ġwarmth":4979,"ĠEverything":4980,"Ġflinched":4981,"ĠBurrow":4982,"Rose":4983,"ixt":4984,"roaker":4985,"rag":4986,"Ġtechn":4987,"Ġwhispers":4988,"Ġinches":4989,"Ġargued":4990,"Ġhole":4991,"auxbat":4992,"haired":4993,"Ġ,":4994,"Ġtail":4995,"Ġcow":4996,"Ġcook":4997,"Ġshelves":4998,"ĠAegis":4999}